01 00 01 00 ff fd fb 06 03 fd 00 01 09 0b 02 08 fe fa 04 ff fb f8 f7 fd 04 f9 02 06 04 f8 f9 03 0c 0b 17 1e 1b 0d 0e 15 28 1a 09 05 1e 18 11 19 13 0f 08 0a 01 fe 07 02 f9 00 07 03 ff 0c 14 27 31 2f 30 34 23 10 15 fe 0d 22 33 27 21 16 12 16 08 07 fc 06 ff 03 fb 05 1a 11 0e 22 24 27 42 40 3c 34 35 2d 29 39 3d 3a 42 2e 27 0e 0b 17 0f f8 f8 03 e9 fe f5 fa f8 03 0a 04 10 22 15 10 15 18 2a 32 2f 1f 0d 17 1f 18 23 1f fe 05 fe fc 05 fc f3 e6 ef f3 f9 00 07 0a 04 0d 13 16 28 2f 2e 21 25 1a 16 18 25 25 16 15 05 09 04 00 f9 f2 f0 ee f3 02 00 f8 0b 0f 1a 13 1b 21 1a 21 1d 0d 19 11 32 20 16 0c 08 0e 00 f7 f2 00 fd ee 01 04 08 05 04 07 18 07 07 17 10 11 12 0f 0d 1d 26 31 12 16 fe f3 06 f9 f3 f4 f1 fe 0a 05 11 0b ff fb 00 05 04 0c 0f 08 12 10 15 1c 35 2f 14 06 fd 01 09 f6 fd fc f0 f7 01 fb fd fd fb fa fe e9 ff f3 fe f2 f5 f9 ff 0e 3e 30 1d 14 fd fb 04 01 01 f5 04 fb 04 ff f6 fb fb f9 ed e7 e8 ec e7 dd d6 c9 cf ff 2c 39 29 0b 01 f6 02 00 fe f4 f3 f4 ec ec f2 04 0b 04 e2 d1 e3 e1 d4 ce b6 b3 ae d4 f8 17 0c 04 08 ef e7 f3 f0 f3 f2 f0 f1 f7 05 14 17 17 de cd d4 cf d7 d5 c7 a9 b2 b8 cc f0 ff ff fb ff f7 f5 f8 f7 ef f5 f5 04 13 1c 27 0c ea db d3 d8 e7 ef e8 d8 cf e1 e9 eb 0a 0c 0a f9 fb f2 e2 e2 f9 fd 03 10 1c 24 19 fe e7 e2 dc e7 f9 ef fa f7 04 08 0c 08 1a 08 07 10 fc f7 e4 ea ea f6 f6 0c 1a 1b 0e f3 e7 e0 eb ed 03 13 0c 16 0a 25 36 26 0c 0d 01 0f 14 0e f5 ef eb db d9 01 0f 08 f9 e9 e2 e9 e2 09 1a 15 15 1a 26 21 2f 36 17 00 00 05 13 20 0b 01 f9 e8 db d4 f0 e7 e1 de d8 e8 fb 0c 1a 14 18 1c 22 28 1e 20 0b 0a fc 02 01 23 18 0b 11 fe ea db e6 e4 da e2 e0 fe 16 1d 0d 14 15 17 20 21 29 21 01 fc ed fd 17 2d 20 1a 15 0c 11 0a 11 0e 0a 04 04 15 1d 20 0f 1a 11 10 1c 14 1e 0b fa f4 04 12 1c 25 24 19 19 11 18 2c 2e 34 26 24 1d 1b 0f 17 0d 0d 0d 0e 22 14 0a 12 08 03 fc 0a 1d 31 1f 0d 16 1b 1f 2a 29 33 2e 2e 1a 1a 10 11 04 14 17 1e 23 21 08 07 15 04 f0 fa 0b 2e 1f ff 08 0c 1c 17 25 26 22 2e 16 12 0b 0c 08 14 13 16 1a 1d 0c 03 02 fb fc ff 15 2d 1d 1c 0d 15 1a 19 22 25 13 0f 06 05 fe 01 08 09 0a ff 0f 18 11 08 0e fb 02 03 05 25 16 02 06 0b 0c 16 09 09 1b 0e 11 0a 03 0b 00 f4 f0 f3 0c 13 22 12 fa 09 f8 f8 0e 04 04 f5 ff 02 e9 f7 fb f2 f4 f3 ee ff 05 fe 00 f9 ef 01 10 1b 13 0e 09 04 07 fb 00 fe fb f9 ed e7 d3 d6 e9 f2 f2 f1 e0 ef fa 02 ee f7 0a 08 0e 00 f1 06 03 04 fd f9 ff 04 fa 04 f9 f4 03 f5 02 05 01 fb f7 fb ff f3 f8 ee f4 ff ff f8 f9 fc ff 00
05 00 04 05 fb 03 f8 00 08 02 00 fd 07 09 04 fc f8 02 fd f7 02 00 f8 02 02 08 07 03 fc f8 01 fb fa 07 fa 05 07 04 ff 09 07 f6 fd fb fb fd 06 f7 fc fb 04 02 03 07 f9 04 06 ff fa ff 00 06 f8 03 01 fa 03 05 05 03 03 02 00 fa fb fd 06 fe 02 03 f8 01 ff 03 fe f9 fb 05 05 06 f9 00 fb ff 04 fc f9 f9 01 02 f8 01 fe f9 fa ff 03 07 05 02 06 fa 08 fc 07 00 fc 03 f8 fc f7 06 f9 fb fc 07 f8 ff fb 03 f9 03 fa 03 04 f7 04 fe 08 fb fb fd fe f8 fd 09 ff fb f9 06 f7 fb 05 f9 fb 04 f9 fe 07 f7 fa 00 fb 06 02 fc 00 05 fb 07 ff fa fe f7 fd 05 f7 04 f6 f6 03 fd fa fa f8 fd f6 f7 03 fd fb 05 ff fe 05 fb 00 05 03 04 f9 02 fa 06 fd fd fb f7 ff 04 f4 f5 03 fd 06 f9 fe fc f7 f6 fe f9 f9 03 03 08 f9 f8 07 03 fc ff fb fe 04 00 f5 02 01 fc fc fb f8 f7 00 fe 04 fd f9 fc 00 f9 0a fc 02 03 03 06 06 05 01 ff fb f9 02 03 06 f8 00 fb 02 f9 01 fb f9 f5 01 01 07 05 02 03 fe fa 06 fa fb 0a 00 04 05 fb 05 02 04 f8 f9 fc 06 fc fb f7 03 f6 02 f9 fe 04 fe 03 fa 01 fa fb 02 fa f5 02 07 05 fd fa f8 05 f5 ff fa f6 06 f5 f7 03 00 ff 01 f8 01 01 03 ff 0a 09 00 01 f5 f6 02 f7 fd f5 04 02 03 00 00 00 f7 07 02 f8 f8 fc f6 fa 03 06 fc f9 02 f9 fa fe 05 03 f6 05 04 fa 01 f8 ff 02 f9 fc fc 06 fe 00 00 01 09 01 f9 03 04 f7 08 fe fd 07 00 00 03 fa 03 fb fb 06 fa fb f9 fa f9 02 fd 07 00 07 00 09 f8 00 fa ff f6 08 fc ff 04 f6 06 f9 03 fb 06 03 04 03 06 00 f6 f8 fe fc fa 07 06 07 09 fa fa fe f7 01 fe f8 06 02 01 fa 00 f8 05 f8 01 fa fe fb f5 01 f7 07 fc f9 f8 ff 03 08 02 09 fa f6 ff 03 fa ff fa fa f6 f5 04 f5 f7 ff fb f6 fc 02 f8 07 06 04 00 fa fd 07 f9 06 03 f9 fc 07 f9 ff f9 f7 05 05 fa f8 02 fe 02 f9 f7 fb fe 09 00 fe 04 f7 07 04 02 f8 ff 05 07 03 fa fe f9 f5 f8 04 06 03 06 03 fa 02 00 fa fd fa fb 07 06 01 00 f8 fe 09 f8 ff f9 f9 f8 f8 02 f5 05 f4 02 f5 fb ff f5 00 fe f7 fc 00 00 00 05 05 07 01 01 05 03 07 fe fa 02 fc 05 f8 f9 fe 05 fe f9 06 fb f6 fa fe 05 f9 03 ff fa 03 07 07 f9 02 fa 01 fd f6 f9 fd fc f7 f9 06 f8 f5 00 f9 07 fb 07 f9 01 fd 02 05 fe 01 06 fc 05 06 fb fa 04 fe f7 00 fa f5 fb 05 f6 fd 03 04 fb 00 ff f9 00 07 02 03 f8 fa fc 05 02 02 03 00 04 fc ff fc fd f8 fa 03 f4 00 fc f8 04 fe 07 01 f8 00 ff 02 05 ff 07 09 08 02 fd 03 02 05 f7 00 f9 f8 06 fe f6 fb f7 f5 fb 05 fa 01 01 05 07 03 f8 03 fb 09 f7 03 fc 00 03 f7 fa 00 06 05 f9 fd f9 fd 01 f9 04 02 07 06 04 01 fe f8 04 ff fa fd 04 02 07 fc 00 03 fa f7 09 03 03 04 00 ff 0a 09 f9 06 f8 f8 ff 07 fa 07 02 f9
ff f8 01 f7 06 08 fe 03 01 00 f8 f9 06 05 f4 04 08 03 09 04 01 fe 07 fc 05 fd 04 07 f9 08 fe 07 10 04 1b 26 27 18 1f 22 38 22 02 ff f7 10 1e 1f 1e 21 15 0b 02 08 08 f7 fe f9 fe 12 08 1e 1b 25 1c 0c 16 21 25 11 0e 05 02 00 10 14 18 21 1c 1f fb 03 f8 02 fa fe fa 08 08 03 0a 05 0c ff 07 17 0c fd 09 f0 f9 f5 ff 08 fd 02 05 04 10 f4 10 00 fe fc 00 09 2b 0e 0b 15 10 14 0e fb fb fe f6 f7 e5 f7 f8 f3 01 fd 0e fa f2 f6 f0 fd 04 ff fe 13 24 ff 0f 09 05 ff 0a 0e 0c 15 12 07 f8 f6 f9 02 f0 e4 ec ef e4 d5 c9 f1 05 fa e4 04 05 f7 01 ef f5 ff 04 14 0d 25 21 29 24 1a 0d 0a fd ff f0 de d5 ba c6 e2 f3 07 f2 f7 f2 ef e1 db df fe f7 01 12 19 2b 32 2d 24 0b 06 f2 ea ec d6 d0 b9 dd e4 0b f6 e8 eb eb eb e2 ea ea eb f2 f0 f4 fb 12 1b 1d 12 0a ff ff f4 e2 d3 c8 b7 bf ed f3 f6 ed e3 e0 ec f5 f5 f2 ef ec d8 ee f2 fb 04 09 ff 0c 05 10 fd f2 d9 bb 8b b4 f2 f6 ec d4 e5 db e7 eb f7 f6 ef e8 e4 f8 ed f8 f7 05 0d 0d 13 18 08 06 e3 ba 8d ac f0 fa ed d1 d7 e9 ee 10 14 10 0d 09 0b 03 ee f2 f7 02 22 22 21 33 36 1c 0e de 97 be e9 fe e3 ce de fb 0b 27 1b 22 22 1c 1c 10 ff f2 fe 22 1c 23 2b 28 3b 35 2c 18 c6 c5 e1 f8 f7 d3 f5 15 32 38 27 28 1c 23 20 0a ff 05 09 1e 22 23 23 13 2a 2f 30 1b cb c8 f1 f1 fd e6 f9 1e 38 30 27 21 21 22 1c 01 f9 ef 07 1a 16 1e 1c 23 24 24 1d 0b dc cc ec fa 0b f8 ed 14 33 1c 2d 1f 20 22 24 fd e0 e7 01 0e 0f 08 12 1d 15 19 08 e6 d9 d8 e9 f8 13 08 e8 03 1e 13 22 32 25 25 10 e9 d8 eb f2 05 07 17 0b 11 0b 07 fc df cf d8 e1 fe 09 00 ea f7 fb fa 19 1d 27 25 08 f0 e9 ea f9 0a 17 0f 15 03 04 08 f1 cd d2 dc ed 00 05 0e e5 e7 ea ee 09 0a 18 1b 07 fb ed ee 0d 09 15 16 0d 04 01 fd e7 c5 d1 e2 f5 ed f6 05 01 f6 f3 fb f1 f9 f7 0f 04 f6 f1 08 07 13 0c 0e 04 0a f3 e8 e0 dd d5 e4 f9 f9 0d ff 00 f2 ff fb e7 e6 fe 03 0a fe 09 0c 11 0d 04 fb 05 02 ee d2 ce e9 e3 ed f6 f1 fa fa ef ea f6 f3 fa f7 f2 fb 0d 17 06 0e 0d 0d ff f8 f1 f6 e3 d8 e0 e0 df fc 01 ed 04 f5 f6 e0 ef ef f1 f8 01 05 08 06 12 05 0f 04 05 f0 ec f7 f9 fa ee f4 f5 00 f9 fe 04 02 15 dd f8 06 02 01 fe 0a 07 06 07 06 f9 f7 fe 03 fc fd 03 12 01 fd fb f0 08 fd ff fc 19 24 15 18 17 0b fa fa f7 f0 e8 e2 ef f2 fc 00 fa 1a 17 15 10 f3 eb f1 07 fd 09 14 f8 18 28 1f 20 14 fc 07 f1 f0 e1 e7 e8 fe f5 ff 18 2c 28 0f 14 01 06 f4 05 00 08 06 12 11 1f 2a 1b 0a 0e 07 03 08 03 1a fe 04 04 15 0a 11 17 ff fc 07 00 01 fe 01 ff 04 05 00 ef fc fa fd f4 f3 f4 f5 de f9 f2 e8 db ef fd 02 ff f6 e7 f8 f9 fe 08
ff fb 09 f9 05 03 02 fc fb fc fd fe 06 09 06 fa f8 ff fe 09 09 01 07 f9 fa 05 f7 00 04 f9 f8 03 03 07 12 26 20 18 22 23 21 1f 09 07 f8 11 26 24 1b 11 0a 0d 01 f7 09 f8 04 fd 0b 00 01 0b 13 1e 25 ff 0c 18 1e 19 17 1b 1c 20 2a 30 34 25 23 1a 00 fc fe 06 05 04 f6 13 0a 06 16 12 fe e9 f8 fb f2 fb 0a 03 0b 1f 26 25 26 30 33 20 06 f6 04 fe 03 08 fc 11 04 ed ea f1 e8 ec f0 f7 f7 02 02 08 0c 0d 10 16 0e 17 1a 05 f9 fd 16 13 03 03 f5 f2 ef cf d4 ea ed ef f1 08 0e 08 09 07 06 01 fe 04 03 f2 ec e2 f0 13 1e 07 04 f7 fc e6 d6 cb da cf d8 e9 ef 08 24 33 2c 37 27 1c 14 0a 10 ec ee e2 ec 1e 0d 0e f9 fa de d1 d9 cb cd d5 ea ee 08 0f 1d 2e 30 3c 37 15 04 00 f8 ef df e7 f4 01 f4 14 fc ec d6 cc d3 d4 e0 e0 f4 00 05 11 05 18 1e 18 fc ee db e0 e5 f8 e6 e3 0e 18 11 17 fe ef de c5 c4 d6 e8 f9 0e 09 0e 0d 0d fa f2 d8 c4 c5 d1 dc ee ed ed f3 17 2b 1d fe f7 e7 d8 c9 d7 dd fc 06 1e 21 1c 0a 08 f6 e4 c5 c9 cf ea ea f5 fa f8 07 23 1e 15 fd ff e1 cc c7 d3 fb 04 1d 27 23 21 12 07 19 ff ec e2 fd fe 09 07 06 0d 20 2a 18 15 f4 fc dd c0 b7 da 05 1e 1d 1d 1c 0d 0b 10 2a 22 1d 17 1c 1f 17 26 16 0d 2e 06 e6 e3 e6 f6 f5 d4 c8 ec 00 10 21 1d 16 07 12 1a 3b 27 2e 28 22 20 22 19 0e 04 f4 ca be c7 ea ea 00 e1 c9 e0 ec f6 ff 05 15 14 20 22 2c 25 1e 27 1d 0d fa fa ea df cb b8 db db f5 ee 0f f5 c3 ca d0 dd f2 04 0d 1c 26 28 1e 10 07 05 fe fe f0 ee dc e0 ca c3 e0 d3 eb 00 0e 04 cd c2 c4 c8 e5 f5 06 1d 2f 1b f0 e5 ed 03 fa fe f3 ed d3 d5 db cb d3 d9 e8 fe 03 03 dd d7 cb d8 e1 f0 09 1d 21 0e ec de ee f9 06 09 0a ff f9 e8 d1 bc af cb f0 f8 05 05 ee e6 de ec ea f3 05 12 13 f0 dd df f2 fa 05 0c 11 12 ef ea dd bd b8 d9 ed fe ec 06 fe f9 03 fe f0 fc f4 ff fa e7 de e2 f0 ff 18 1f 20 09 f7 f0 e2 cc c3 dd f6 07 f1 04 06 0a 12 f9 fe ea f3 f0 d7 e3 ea e7 f5 05 0d 19 08 03 f8 03 f3 e0 f2 d9 fc f0 fb 02 05 0b 05 fc f6 f4 fb f2 f4 f1 0a 05 ff 0a 07 0c 02 0c 00 08 f5 f5 ef e8 07 f4 00 f4 05 03 ed ef f5 fd f4 f8 0e 18 1e 0f 02 0e 0a f8 f2 fc 04 09 01 f1 f1 f4 f7 fa 05 11 1d f9 ee f5 02 19 0c 0a 10 17 13 17 0b 15 04 0b 10 0d 09 0d 19 09 fd e2 fd ff fa 11 08 fc fe 04 19 1f 23 1a 18 15 0c 03 15 19 21 28 1e 30 23 10 1f 09 e4 f3 03 02 fd 14 fb f1 07 19 15 20 0e 1c 1f 15 15 20 15 30 36 35 32 3c 36 17 1a 1e f6 f3 fe f9 07 04 12 20 16 15 20 16 0c 17 0f 20 19 21 10 06 1a 16 10 24 24 19 0b 0b fd 08 fd 01 f7 07 00 f9 f6 ff fd fb f4 f1 03 ff e1 fc f8 eb df eb ed e7 f8 fc 01 02 07 f9 ff
fd fb fe 08 01 02 09 02 fa fa f7 04 08 ff 02 03 04 02 fb 06 01 03 03 ff fd 05 02 02 03 fb 06 fc fb fd 05 f0 fe f8 f8 fa f7 ff 08 fd 15 09 f4 eb f2 f4 f5 f9 08 f8 fa f9 fd 04 07 0a 04 fd 00 f0 f7 07 02 07 01 fe ff fb fa ef e2 e2 e7 ec f4 ee 05 0a 01 fb 02 f8 09 fe f5 fc f5 fa 10 17 17 22 23 19 1f 0d 04 03 e5 e8 f4 e6 ee ed f8 ff 10 fc 03 f9 07 17 f2 fe 0c 09 0d 18 17 29 2b 22 13 19 01 f4 ed da df d0 e0 d7 ee f0 fb fa f8 03 f9 15 0a 17 14 12 12 1f 24 2a 22 23 1c 0f 15 02 f4 e2 dd dc dc cd ce 00 f6 01 ff 06 15 2e 23 2a 1f 1a 25 16 23 1c 15 1b 2d 27 30 20 25 04 fd ff e9 cc c0 c6 e3 f5 05 21 22 30 26 24 26 21 1f 18 1d 20 24 30 2e 3b 33 2f 2e 23 1c 06 02 e1 c2 bc d4 f3 15 1e 19 26 20 21 18 16 17 1e 19 21 2c 24 3f 3c 38 3b 38 29 18 11 18 f4 c6 ba ce f6 0e 0f 26 24 18 12 09 09 03 01 11 0a 1d 20 43 42 42 32 31 22 1e 1d 17 f4 d8 d3 d6 f3 0e 0e 1b 2a 01 06 f5 e7 e7 e4 e1 e6 e7 06 1b 2f 25 28 24 16 1a 21 11 f0 ea e5 e6 03 02 13 19 08 e4 e3 d0 ca d6 cd d1 dd ca bd dc fb f8 0c 17 17 18 11 04 f6 e7 ed e2 02 fb 10 19 f2 d9 bd c4 c9 cf d2 d1 cc b2 ab bb de e6 f6 0f 07 08 ef e7 ea e7 fb f1 03 fd 01 14 f9 d5 c0 c3 d8 df de dd cf c2 c3 cb db e5 fe 0d fd e8 ea dd e4 f0 fb 0a 07 f9 f9 0b ed e1 d7 d8 e4 e5 e8 ef dc e5 e8 ed f1 f4 08 04 ff e9 e2 e1 f2 05 05 1e 10 03 f4 13 f5 fc e7 e3 ef e1 ef 04 f3 ea e5 e4 f0 f8 02 02 fe f2 fb e8 f4 06 0d 15 1c fe ec 0e 13 14 09 fa f1 f0 f9 07 f1 fa ed db ed fd 0d 04 f5 f7 f6 f9 00 06 21 27 1a f7 fc 0b 13 28 0f f3 df e7 f1 f1 ee e3 df e0 f8 02 0a 00 ec f6 fd 06 03 07 3b 1c 1b 11 fb 09 0e 1d 09 07 ef f6 ef f1 eb ee f3 fa ff 0c 0c f5 f5 fb 01 10 0b 0f 25 21 11 ea 12 09 10 23 05 04 0c 09 04 03 03 12 1b 17 09 05 fd f9 f9 f0 f7 0d 0f 14 24 20 02 04 10 08 19 16 21 14 0a 15 0c 14 1c 14 19 10 13 01 f7 e8 fe f9 f5 03 fd 13 0e 14 ff f8 01 18 14 0a 0e 17 0e 15 14 16 0c 0b 10 06 03 0c fe fa f3 f5 ea f5 06 1a 19 16 07 fb fd 19 07 0b 0c 1c 29 1f 27 19 16 1a 0a 11 05 03 fa f7 f0 f5 eb 06 04 15 07 f6 fa 04 06 01 ff 13 16 26 3d 23 20 23 2c 1a 0c 09 02 f6 fd f4 f2 d7 ef f8 05 08 ff f7 02 08 fd fd 0c 2d 3a 2c 2a 1f 14 1e 12 29 26 19 16 0a 0b f4 de db e8 f0 fa 14 18 0a 00 ff fe f1 fd 27 2f 25 24 37 2a 2a 36 35 27 25 28 19 1b 24 0f ff f5 f3 f8 08 10 01 fc f9 f7 05 f8 f6 05 0c 25 2a 2d 2b 33 23 2e 3d 35 2d 36 3a 39 07 07 05 00 05 fc 05 fc fb ff 08 f9 08 06 06 23 17 19 14 0b 17 26 21 27 1c 2a 1e 12 07 05 f9 0e 08 fc 01 00
fe 04 02 fa fc fd 07 fd 00 08 f8 02 06 fa 01 05 04 07 08 05 04 05 fa f8 05 07 fe fa 08 fa fa fc 05 00 08 03 04 01 fd f6 f2 00 08 0d fe ff fc f5 04 f8 f7 f8 08 06 fc fb 03 01 08 08 03 fc f9 f1 fa fb fa ff 0a 0c 08 03 13 f6 f5 f5 f5 f0 e9 ef f8 fa f8 05 ff ff 09 f4 01 0f ff 08 20 18 1f 25 35 3b 37 27 24 0d fc fe f6 e9 ea e5 f0 fb 04 fe fb 02 10 06 ff 27 29 16 22 26 33 31 2e 2c 25 22 20 0b 14 fe e9 e9 e7 dc e3 f6 06 f1 02 06 04 12 0f 20 15 0d 0f 11 23 24 1d 18 1e 21 21 17 10 03 09 09 fe f5 ec fd 01 f2 f9 15 fc 16 09 09 0e 03 08 05 13 13 21 1d 1c 16 15 0a 19 0c 0f 05 06 f5 05 09 1c 08 f5 0f f1 01 1c 0e 09 03 03 03 06 18 16 1f 16 13 09 15 0d 11 0a 0f 15 f7 fb 1a 15 02 fb eb f1 0c 21 0a 07 f9 ff 03 0b 02 0e 0f 1e 10 12 11 20 0d 10 09 16 09 04 26 22 09 03 f2 09 12 17 02 f9 f2 f9 ff fa ed fc fd 0c 18 16 0b 0f 0a 12 11 19 20 22 32 17 0c 04 fb 05 20 04 01 f6 eb f3 ef e0 e3 e1 f7 18 0a 0a fd 01 01 08 06 0b 08 2c 33 31 0b 02 f1 00 08 f4 e4 db cc e0 d5 dc ef e8 fb 09 00 e6 e5 e7 00 ec e5 e3 e2 02 1d 12 11 ee e1 ef ec e2 d7 df d0 db e3 04 00 09 03 03 f6 d3 de f1 f9 e7 e2 da d5 e4 f0 ff 05 0d f6 f3 f4 e9 e0 dc f3 fd 03 04 01 03 0f 0b dd d1 e0 fc f8 e9 ea dc d4 e2 ef 02 f5 04 06 ec f8 ee e7 f0 f9 06 13 fd f2 00 13 06 e3 d4 e8 eb f0 f9 fb f0 e4 f5 01 19 f7 07 0c ff 07 10 03 fa f6 fd fb fb f2 f8 f7 fe e5 dc d6 e9 04 fc ff f6 fa 09 0d 17 13 f3 11 1f 2c 24 0d ea d1 ca d9 dd e5 ea ee e9 de d4 f0 ff 0b 0b 12 0b 0d 0a 13 24 1a fc 15 12 3d 27 11 f1 de c5 bf c9 c4 bc cc d6 e3 e9 f9 0d 16 0b 07 07 09 fc 09 05 0f f4 0c 11 3f 31 1b fd e0 d5 c8 bc bf c0 da e7 01 0f 13 09 0b 14 1f 17 08 0d 25 14 13 07 05 0e 1f 23 13 09 09 f5 ea e8 db f5 03 05 0f 1e 1d 1f 13 1d 25 21 16 0c 2b 1b 19 04 0a 09 2e 25 1b 1e 16 0c 1c 0e 0e 03 12 16 15 20 25 2c 1e 1c 1c 19 1a 0c 1a 0c 0b 0f fe 0e 2f 2d 14 24 10 12 0f 14 20 16 10 15 17 1e 24 22 25 20 20 17 1e 19 20 14 01 14 09 17 20 26 27 11 1d 1d 1d 19 1e 11 05 16 1b 1e 24 2b 27 24 13 17 17 19 17 01 fa 02 09 14 30 23 1e 15 1d 11 1d 2a 2c 25 0f 0e 14 14 19 0d 13 07 02 12 0e 1a 24 1e 03 fc f7 0b 20 21 0e 18 15 19 18 19 1e 28 21 22 1a 00 09 08 ef ec fe 0f 03 1a 22 0f ff ff 08 0a fa f8 fb 08 05 0d 17 05 04 0c 0a fc e9 e9 e6 da e8 dd ed 07 0a 0d fe 08 fa 09 fb 02 00 fd ff f3 ee ee de db e9 ea e2 de e4 f6 e1 ec f9 fb 0f ff fc 07 03 01 fb f8 fe 06 fa 01 fd f9 f8 fd fd 09 08 08 fa f6 e7 fb ef f3 f2 f9 fe fd fb 06 03 ff fe
06 08 05 fc 07 fe 06 04 07 04 f7 f9 00 fe fd 08 04 05 01 08 01 fd 09 07 05 fe f7 fe 00 f8 f8 fa f9 f6 e1 df ee e7 ec eb d9 e7 ed eb e4 e4 eb ef e2 f0 f4 f8 ff 09 f9 05 03 06 02 fd fc e9 d5 d5 d0 db d0 c1 c9 d8 d0 c9 d7 db d4 d3 d5 e4 e3 e7 ff 0b ff f7 08 01 f6 f4 f1 e7 e0 dd d6 d6 d9 dc d3 d8 d6 d0 d7 df d3 d6 db f0 f7 f5 f4 0e f5 ff f9 fd f6 e9 ed d8 e4 e2 d7 eb dc f0 e3 e5 f0 ed eb fa fd ff 02 fa 07 17 12 0c f4 fb 07 00 f5 f6 df e3 e6 ed f5 f2 05 07 05 05 15 18 15 24 21 18 1d 1e 24 25 15 0d f4 e8 fe f8 f7 e3 e5 f1 de fb f8 07 02 12 0e 05 02 0c 0f 18 16 1b 0f 16 35 34 27 05 02 e8 01 e5 f0 e4 de f0 ec 07 0b 0b 14 09 f5 ff f2 f2 ff 14 18 1a 0d 0f 26 39 37 1f 15 f3 11 dd f2 ea d7 e8 f1 f9 08 10 14 07 00 ef ec e2 07 14 1f 13 0d 0d 0b 3a 42 2d 11 ee f3 f5 ec df de fb ed f1 01 10 1b 1a 04 fb ce cc fd 1a 2a 1a fe 01 05 2c 3a 04 03 f0 f4 f5 ed d4 f5 06 fb 0a 13 27 27 28 29 fd cf c7 f4 0f 0d 0a 00 05 0c 10 16 e4 e2 0c 06 fa d4 d6 dc 03 04 17 23 16 16 25 14 e6 c9 d0 e3 ee f7 ff fc 0e 10 09 fb f2 0e 08 06 e9 d9 de e9 0e 0b 15 20 0c 0f 1f 21 f5 c9 d8 e7 e6 ff 11 0b 1d 17 0c fc f9 07 ed 09 f9 de de 02 06 18 16 15 14 2b 33 1e f7 d8 dc d9 f8 04 1c 14 14 1b 0a f4 03 0e fd 0e eb ec ee 0e 15 23 29 21 16 2c 33 1d f5 dc cc f0 0a 0b 23 0f 0a fd fc 02 04 17 03 0d fa fa f5 15 1a 0f 23 26 1f 18 18 0e f2 d6 d8 00 1c 12 17 09 f2 03 f6 f8 06 1c 11 01 fc e4 ed f0 0c 10 1e 2a 21 1c 11 09 e9 e2 ff 1e 1a 13 0a 0e 07 05 f2 ef f4 0d 17 01 eb f2 d7 fd 0d 14 1f 25 2f 1a 0e 05 07 f6 10 1b 14 05 f7 07 fc fb ef f7 f9 0a 05 ec e9 f5 d2 f5 06 19 22 16 1c 0d 0d 04 03 f8 02 fa f6 fa f4 04 fe eb e9 f0 e9 03 03 fd f8 fa d8 f5 0a 08 0c 02 0b fa fe f4 ed ee f8 f6 f5 f3 f9 fa f2 f8 ea f2 f7 14 0f fa 08 04 d8 f0 f9 fc 05 fc f1 fb fb fa ec f1 ff f8 01 f9 01 f4 05 02 f7 f4 eb fe f3 06 fa fa e5 ed fd f6 03 00 08 09 07 fc f9 f3 01 fc 04 fb 04 03 0b 0e 0a 02 fa 0c 0a fe ff ff f5 f2 ef 05 05 17 10 0e 1f 1e 15 18 16 15 0d 08 0c 08 16 10 0b 04 03 00 fb 03 f9 f1 cf df d9 e8 f7 13 0d 1b 1c 2b 26 1f 24 29 20 0a 10 11 17 05 0b ed 0d e5 07 08 f9 f3 d6 cb d7 d5 e5 e8 f3 f6 0e 0e 03 12 1a 0d 09 17 0e 06 fe 05 fd 01 1a 09 00 04 03 f7 04 ed d2 d1 b3 a8 ae bc b2 ae c5 d0 e0 e9 e3 e2 df e6 de e5 f6 e4 06 11 08 02 ff 05 10 02 f7 ec d2 c7 c1 cb cd cd c8 bd c5 be bc be c3 dc d8 d9 f8 ee fc fd 03 03 fb f7 09 fa f2 f4 f2 ec df de e3 e8 de cf e6 dc e4 d8 e1 f1 f0 e5 f3 fa ff f8 00
01 ff 05 fb 05 f7 fb f7 f8 fb f9 fb fa f9 01 f6 07 fe 08 f9 04 03 07 f9 fa fc 04 fc ff 08 02 fa 00 f0 e5 dd e9 f2 e0 d3 d1 e3 e9 e0 ce eb ee e4 e5 f4 e9 e7 06 fc fc 03 03 08 f5 f4 fb ee e6 da d1 cd c2 c3 b6 c9 c2 cd cd d7 e8 e1 e0 f6 df ec f5 ed 07 fe fa f7 fd ee e3 f0 e0 be b8 b3 b3 b0 b2 af b0 cf da e8 e8 e0 de e1 dd fd f0 f8 ec fd fb 10 19 07 16 08 ff f2 f6 ef e1 f1 fc f7 f8 f6 f9 f2 ea f8 06 ea ea f4 00 f1 05 fb ff 07 0b 16 19 17 1d 0d f9 f8 f0 01 12 0f 05 0b fa f8 ef ea e9 e9 dd e9 e9 f3 ef fa 00 ed fb 2d 19 1a 1d 09 0e 09 12 05 0a 0a 02 16 0e 14 fd 06 f6 f9 eb f2 e2 f4 f1 f8 08 fb 11 35 2b 19 24 1e 0e 13 0a fd 02 19 05 10 19 0a 0c 12 10 02 f9 e8 df dd 04 f6 f4 f7 0d 2d 3b 2a 27 15 1a 0e 04 fe 02 17 00 01 11 0a 1e 1d 0c 0c f8 e2 cf d9 f6 fd 04 08 f8 20 26 23 27 12 05 0a 0a 09 01 fe fb 00 11 1d 17 18 17 11 06 d8 b1 c1 e9 f1 0a 01 f2 0d 1c 10 0c 11 08 0c 04 04 08 ee e9 0d 2e 23 23 21 28 1f 0f cb ac b1 d2 02 0a 02 00 24 17 19 10 18 1c 12 26 14 12 fb 0e 3b 35 26 1f 2d 39 2c 19 e1 c2 c8 ee 08 08 14 16 28 2a 24 01 0d 14 1d 0d 04 f8 ff 2b 4d 4c 30 26 2e 3a 38 2e 1e f3 fa f5 02 01 08 ff 1f 28 16 0e 0d 12 0d f6 ef f5 11 36 47 4a 32 2d 21 25 11 03 ea d3 00 f7 f2 f4 1b 0c 28 2e 0c 06 ff f7 f2 ed f0 03 13 2e 36 3f 38 2d 1e 02 f7 dc cc ce ee dd f4 f6 14 13 1c 1d f9 f3 fb fa e5 ec f9 04 17 2a 34 37 2a 11 05 f3 e4 f1 cf c2 d8 00 ee 0d 02 03 f6 03 e4 f0 00 0c fc e7 ee 09 1a 27 26 36 1d 01 de e2 ec e2 d3 cb cb de f3 fa 07 fb ed e6 d3 d5 00 04 0b f5 f8 11 22 23 1b 1a 08 ed dc e7 e6 e2 d8 cd cd ef f6 12 0c 17 fc e2 c8 d9 ed ff ee e8 ea f4 06 11 0b ff e4 da e2 e1 e6 d5 c5 c3 b4 f8 fc 05 ef 13 08 df da da dd e6 e3 c9 bd cd e5 ee fa f1 e5 e0 dd de e3 d6 d3 c6 c4 f4 f8 03 fd fa f9 ec e6 e6 f5 e6 dc d6 c0 cd dc f3 06 fe f7 e7 e7 f0 eb e0 de dd e4 f3 f8 06 0c eb e7 e3 ef f5 f6 f0 e8 e8 de f2 f8 07 06 00 02 fb f4 ef ef e6 d8 e2 e4 f1 01 07 08 f6 e3 ed 00 fd 05 f6 f0 f9 f9 ff 09 08 0a 04 01 02 f7 fe ee f3 e7 ec f6 f7 fa 07 02 fc e1 f0 eb ff 0d 0c 0c 0a 0d 07 16 18 15 07 0b 0f 05 fa 04 02 ff fd f3 eb 07 02 fd f9 f4 02 09 19 24 21 19 14 1b 03 0a fb 10 13 fc 08 16 16 1a 08 01 f2 f3 fb fd 06 03 fe fe 09 15 21 25 2c 16 1d 18 1a 10 1c 10 13 03 15 1e 1f 17 fb f9 f1 f4 fe 01 f9 f9 fa 10 17 13 30 33 35 2b 22 16 12 14 1f 12 10 1d 1a 13 09 0d 0e 09 05 fa f7 08 01 08 06 08 f9 09 06 13 0d 06 04 06 08 0f 20 25 15 1b 21 1b 12 1e 1e 09 fb 04 ff fe
00 06 05 fa ff fa f7 fe fc 04 04 f8 f4 f7 02 fa 07 fa f9 fe ff fc fa fd 04 ff 07 03 07 09 08 f8 01 fb e1 e1 ef f0 e5 eb db de eb e4 e7 f9 f9 f1 e6 ec fb f7 fd fa fd fd fe fe f5 03 f8 ec df dd d5 dc c9 cc ce cb ce d1 dc eb f0 f8 e6 e9 f3 e8 f9 f9 ff 07 ff fe fc 01 ef e3 e2 eb d9 c3 c8 ca cb c1 dd db e3 fc 06 0c 0c 06 ff ee e5 e9 f9 fe fa 03 fd 0c 0f 05 03 04 f3 e2 e8 fa f6 ef 01 fd 0c 11 13 11 ff 02 00 f7 13 0d fe f4 05 03 fd 0d 0e 1f 13 16 0b 0e 14 0c 03 ec f2 f9 12 1d 19 0b 05 f3 fc 0b 08 1c 05 fc 01 05 02 f6 18 27 26 26 1b 1b 10 04 f0 f8 f1 f0 f9 f9 f7 04 fd f1 04 13 19 25 22 07 f3 1e e6 fa 0f 27 30 25 20 1d 0e 06 f2 e4 ea e3 ed ec fa f7 01 f4 03 18 1e 36 2d 08 ef e9 ff ff 15 2c 21 1d 19 19 0d f6 ec da db d8 de ed ff 0f 17 17 11 26 3f 47 32 ff f5 fc 0b ed 05 0c 11 06 05 02 04 f9 e8 d8 d3 dc ee 00 01 12 1b 1c 25 2f 3a 4a 28 08 05 f7 f6 00 fc f8 fa 05 05 11 f9 f8 f7 de cf e9 00 fc 06 00 03 00 f7 00 25 46 28 03 f9 e4 de fa fc fa f4 fa 00 04 04 1d 1c f9 d9 fc 0f 09 ed ec e9 d3 d1 c9 e6 2e 12 07 f6 eb e7 eb ee f5 02 12 11 16 22 40 30 18 fd 08 06 f6 f3 f5 e2 e0 c4 b6 b8 ec 08 e7 09 f1 e9 f5 f8 02 0f 15 0d 1b 2a 3c 45 2a 0d 00 ff 08 09 02 f9 f3 e0 c4 bf ea f6 fb 12 fd f2 05 10 0b 08 0b 18 1e 23 33 32 27 1e 0a 0a 1f 06 0b 07 00 f5 e6 ec f0 f8 f8 08 0f 12 11 04 f7 f6 f5 09 1a 15 27 37 2c 1b 20 13 14 09 fe fe ff 07 0c f6 e7 1a 0b f0 05 12 0e ea e5 ee eb e8 f1 e3 fc 21 2f 21 24 20 15 10 08 0c 0b 22 19 0a f7 03 12 ff 0b 06 19 01 ee f3 da c1 c3 c0 d3 e7 17 13 1b 22 1d 15 0c 15 13 0a 13 08 e5 04 f4 ec 03 19 23 1b 04 fd df d2 c2 b6 c0 da fa 02 0b 15 0c 00 02 0d 13 04 0c 06 e2 0f fb 02 fc 0d 31 18 13 05 ef e5 dc cb d7 da eb eb f9 f2 fe fe ff 0d 13 01 08 13 f2 04 00 08 fc 10 27 15 09 09 ee ef ee e0 e8 dc df ec f0 fa 04 0b 05 09 09 1b 12 f7 f0 f8 fa fa 05 14 13 20 00 f5 f0 f0 f2 f1 f8 f8 f1 fb f5 f9 0b 04 0c 05 1c 1a 1c ef fc 03 f9 f1 02 0b 20 15 ee ee ef f3 fe 03 07 07 08 fe 0a 03 fe 01 14 12 12 17 09 fc ed 11 00 07 09 17 3a 38 0f 08 f6 fc 06 1d 1c 13 13 16 0c 04 01 02 0e 08 13 fa ff f5 06 06 08 01 fb fe 2f 38 12 10 16 1a 22 1c 29 1d 1d 24 0a 13 ff f9 00 01 01 0d 03 f7 f0 f3 05 f7 04 12 0c 1b 0a 16 1b 0a 1b 27 14 11 0f 10 05 04 e5 f1 ec ea f1 05 16 06 fa fa 05 05 ff 03 ef ee e4 d4 cd c2 c7 c5 cb c8 b6 9f c1 c2 bb c0 c8 d5 e7 f6 f5 fa fa fa f7 fb 07 05 05 fc 07 f8 e9 f1 e7 e7 f6 f4 e3 d0 dd e5 d9 e3 e4 f0 f5 f9 1b f9 03 fe fa
03 07 ff 08 fa 08 fa f8 fe ff 04 fc 01 06 04 05 fe fa f7 fa fd fe 02 06 fe 05 07 05 f8 06 fa 05 ff f2 f9 f3 f7 f4 ec ed e8 f5 ff 08 00 f2 fb e8 ef ef ef f4 02 06 00 fb fb 06 f8 fd f6 fb ef f6 e4 eb de df dd ed e4 e4 dd e6 e1 e6 e8 f1 ea eb ed f5 06 fc fd 05 01 fa f6 f8 f6 e4 e3 e6 d1 d2 d8 d2 c1 c8 c7 c0 c9 c4 d3 cd d6 f3 f1 01 f9 09 01 fd 13 ff ec ed f2 eb d8 d4 d3 e3 ee e3 dd d5 d8 ce d2 ca d5 de d3 d7 d6 dd f5 fe fd fe 03 02 fa f8 ff f5 f8 ea fb 0c 0c 0b 0a 01 e8 da d1 da d4 dd cf c6 c1 dc e8 fe 02 ee 0a 06 0b fd 03 ff f4 fd 05 13 0f 14 16 10 15 0c f9 db e0 d1 c7 ba ba d2 e3 f3 04 e9 23 18 01 f2 04 fc 01 06 0b 10 18 21 2e 28 2a 19 0d ed d8 cf c9 b4 af b6 df eb f9 26 13 09 ff 09 03 01 03 f8 ff 05 05 1e 2e 32 33 1b 08 fc e4 cb bd b6 a6 c1 e0 e9 fc 18 00 10 01 06 0b fc ff 10 0f 07 13 22 36 4b 43 25 20 fd e4 c6 c3 ba b3 b7 de 03 09 1d 21 09 f8 12 07 fb 07 12 1d 1b 08 13 38 42 40 36 20 fe e7 e1 d6 bf b8 ba d3 0f 02 1c 1d 03 09 16 07 0f 0e 13 1d 05 ee fa 2f 3c 3f 26 20 0e ff 04 f1 d4 c3 ca e0 05 fb 18 28 21 23 14 02 0f 0f 16 fe e4 d8 ea 14 38 26 28 15 09 04 fd fc f6 dd f7 11 1a 10 0e 1a 13 25 00 ed 07 02 fd f5 e2 df f0 1e 23 1c 1c 16 07 f9 fc fe ee f1 1a 3d 14 ec 0a 12 0b 20 fb f9 fe fa f5 f0 da e1 ed 0b 1a 1a 28 1e 0d f2 f6 f2 fb 04 21 39 0f fa 06 f0 04 10 f2 f5 f2 f0 ed e0 df d9 f7 08 0b 21 2d 1a fa f1 e8 ef f9 02 1a 1e 16 04 f2 f6 ec 03 f6 e4 f5 fd ef f8 e9 f3 04 18 14 1e 14 f2 ea f4 f6 f8 ee f2 1c 2e 14 04 00 e6 df f2 e3 e6 ea e9 05 03 06 18 1c 1e 16 01 f6 e6 da e6 f2 f4 e9 04 33 33 1a 0b f5 ea dc df d9 cd dc e3 ea 06 01 19 19 1b f8 d5 db ea e0 e8 ee eb e2 fb 27 2b 09 13 18 ee d9 e0 d8 c1 d2 d7 e9 03 0d 14 24 18 e6 db e0 ea ef fa ed e5 e8 08 23 25 0f ff 05 e2 d9 e1 c6 c2 c3 cf e4 00 11 1c 18 fa f7 ea f0 e6 f7 fa e3 d9 f2 13 18 0b 04 0a f8 ea db d3 dc c1 cc d7 f6 10 0f fb f7 fa f4 fc fc fc f3 fd f3 e9 fe 2c 0c 01 02 06 09 e6 db db ea d3 d7 f0 f7 0d 0c f8 ff 02 0c 08 05 fb f9 f3 00 f3 10 1d 17 fd 01 01 03 f5 ca d8 ea e9 f0 f0 fa 00 02 07 05 06 06 0f 12 05 f7 ff 0d 21 08 0c 06 fa fd 04 07 fb e4 f8 fc ec ed e8 df e1 e1 ee ed eb ff f2 fe 08 15 1c 2c 1b 16 03 1e 08 04 f8 01 01 fc 02 13 0a 07 00 fd ee f0 f6 f9 fb f8 fa 0c 10 0d 28 19 09 f3 ef 0c fe fe 04 fa 06 04 0d 0d 21 1d 34 35 2d 18 24 21 3b 33 2e 29 25 27 17 0f 11 0c 0e 0c fe 05 f8 05 fd f7 fd 02 09 19 14 1a 20 0b 10 1a 39 26 27 2a 21 2b 13 21 1f 0d 02 02 03 f7
05 f9 fa 03 05 f8 05 04 05 05 08 fc f9 fd 00 fc fe 00 05 fe fd 04 f8 02 fd f9 03 01 05 00 fe 05 fa f0 dd d5 ed f1 f7 f8 f7 f3 f9 ff 16 12 f8 f5 ec e5 f3 f3 00 08 fa fd 04 03 f9 12 f8 ea e3 ef ff 06 10 09 fb f3 ee dc ef f0 ee f1 f7 fc fd f9 09 05 fa fd 00 f8 f8 0a f9 f4 f0 fb 10 18 1a 18 13 01 f8 f7 f6 00 fc f0 f5 fe 10 1a 0f 08 0c fa 02 fe f5 df f2 f7 f9 10 11 16 0a 17 0e 15 11 14 1c 20 17 00 0b f8 ff f6 10 1e 0b 11 f9 fc fb e8 02 e6 fc 06 0a 18 10 15 1f 25 33 36 41 39 36 26 20 08 0d 04 fb 19 fc 00 07 f6 ed e1 ff 01 f8 0f 06 08 04 f6 09 13 14 23 17 1a 11 0f 09 0e 19 21 16 1a fa f6 f2 fa 03 f1 0b fc 0d 07 02 fe f4 01 fd 0a 0a 08 fe 0a fe f7 fe 0b 1d 1a 2b 15 17 fd 14 e3 fa f4 05 09 09 f9 fd 07 08 01 fd fb ef f1 f1 f6 09 05 08 12 10 25 26 17 0b 06 ff e4 f8 f6 f2 01 05 fd fe 0d 07 f7 fb f8 de d5 f0 01 09 17 1c 04 10 1e 11 ec ef ea f0 e9 e1 e7 f2 0a 08 fd fc 06 08 fe 08 dd cd bb dc ff 13 0f 12 0a 0c 1f 05 be d2 f0 f3 fc d5 e7 e6 fb 08 f9 06 04 f4 01 fa ca ba bc d5 f6 fb 0e 08 06 04 1f 2b e2 ee f7 fc f9 d9 da db f4 f4 f7 00 07 0b 29 29 f7 c5 b9 d8 e8 00 0d 0c 0c 1c 2f 4b 0d fa f1 01 f1 e9 d8 de f7 f9 07 04 19 36 56 58 05 df dd e5 fd 03 11 02 09 28 2a 2f 27 1c 0d 0d f0 de e7 f2 f8 0c 21 1a 30 47 53 4b 0f ed e8 fe 04 ff fc fc 02 0a 16 24 2f 23 11 fb fe f2 f0 ff 1b 0c 1d 21 3a 34 3a 37 0d fe f7 11 0c 0a 01 f3 ec ef 09 25 46 32 13 01 f5 ed 09 07 0e 12 1d 23 2c 32 39 21 07 f9 15 22 1c 12 fb fa 03 00 12 17 4e 36 1d f7 f2 fe fa 0b 19 1a 2a 2a 2c 2b 30 22 07 f9 0d 29 23 11 10 15 17 18 14 1e 32 11 13 eb ef ed e4 ff 21 24 33 27 35 33 22 21 04 05 13 2f 25 12 09 0e 0e 18 1c 28 26 0a 02 ee fa f4 f2 04 2a 2b 30 1e 28 2c 20 1a 10 15 26 1a 1b 0c 03 0b 1f 1e 12 02 0d 16 00 04 0a 18 03 0a 23 1b 1e 18 17 24 17 21 10 0e 25 16 0b 12 11 12 24 1f 0d f6 f1 0d fc f4 fb 16 0c 00 ff 01 04 12 16 1a 1b 29 28 1d 0e 14 08 11 07 0b 0e 1b 23 02 f4 1a 01 f4 f4 10 0f f5 e2 f7 fb 02 12 13 32 2e 38 26 14 0f 0b 04 09 16 24 23 1d fb f6 fa 05 03 02 05 0e e3 d6 d6 ec fd 0a 15 26 2c 30 2d 0f 0b fc 16 22 26 28 20 18 fd ff f5 f9 03 fe f9 ee da cb c0 cd ed f0 f9 06 0a 0b 09 10 0f 06 11 11 12 0b 12 17 0c 14 09 08 f9 03 15 ed e3 df e3 d6 cf c7 d7 cd c3 da e2 e7 ef e3 e6 e5 f0 e8 ea 01 ec 06 06 02 fe fb 01 08 04 f7 ef f3 d8 cf d0 e7 d9 d5 dd dd d9 d7 d1 cd ee e9 e8 00 f3 f5 fc 06 fc ff fd 07 fd f4 fc ec ea ed e5 e7 fa d7 eb e6 e5 e4 ea f3 ff f6 f6 e9 09 07 ff f9
09 03 00 f7 fb 08 04 08 02 03 06 02 0a 06 fe 06 ff 03 05 fa f9 07 05 04 02 09 fc 03 02 01 07 fe 03 04 15 1c 18 13 20 24 2e 2c 14 2b 29 1a 17 1d 1c 12 15 13 fc 08 07 04 04 06 01 0f 06 09 1e 1f 33 2d 3a 42 3a 2f 2e 32 2d 20 22 1c 18 22 1f 19 18 ff fd 02 fe fc fa 14 fd f5 0e 0f 0d 30 22 16 15 22 18 0b 11 08 f1 f8 ee f3 fc 07 12 02 00 00 fe f9 00 f7 f8 ed f1 03 0b 0e 09 00 0b 1c 17 0b 0f 11 04 06 18 0a fa f6 e0 f1 0b 1b 04 f7 02 f8 f9 e8 f6 f4 04 f6 05 06 09 10 17 0a 0d 12 11 18 17 16 fc f9 f0 ec f6 0a fa f7 ea f6 ef f0 fd 05 02 fc 00 fa 0c 08 01 0b 07 0f 0a 0c 13 14 03 fb ee df e6 02 02 f4 05 f6 f8 fc 06 06 04 05 fb 01 05 ff f9 05 0c fe 03 04 fe 0b 0e f5 e4 db f4 f9 15 f8 03 04 03 05 02 08 00 08 0e 0a 13 0f 10 0a 0c 13 00 06 fd fb 02 f2 d5 d2 e1 05 0c fd ef fc 05 02 05 03 05 0c 0c 13 1d 18 12 04 01 08 08 07 f6 f2 f3 f6 d6 b4 e3 ed 10 fa f5 e4 fa 07 06 05 05 12 0e 1d 07 09 07 f1 f8 f5 0c 02 00 05 0f 02 d9 a8 c2 f7 16 05 e7 e7 f1 fb fb 0c 0c 0f fe ff ee fc ff e3 e7 e0 f6 12 0e 1f 28 33 16 d0 db 02 fe 12 f9 ee db ff f2 f6 04 05 f4 eb dd e9 fc f4 e8 f4 fa 14 10 2f 3f 51 64 1a f4 0b 05 04 0a ea d7 e6 f9 f2 fd fe f2 f3 ea f2 05 0a 03 ea e9 fd 11 20 2c 46 62 2e 1a 17 fb f4 f6 e1 c3 01 03 00 00 01 06 05 0a 18 1e 17 ff f5 f7 fc 0a 0d 1c 2d 43 2f 2c 18 f9 ed f0 ee e3 0a 08 12 1a 17 17 1b 1d 22 27 13 04 ee ed fd fa 0b 0f 1d 2b 44 0d 18 08 ee f4 ea f9 07 1b 22 1b 2b 32 2d 29 19 1d 0c 00 f9 f6 f2 fb 09 0c 12 1d 50 22 12 fa fa fe e9 ee f6 06 0f 1e 33 32 36 2f 1e 1a 0e f3 e9 f4 01 04 00 13 0b 16 4b 23 15 0c f5 f0 cb e0 e1 e9 01 0a 28 29 2a 2a 22 0d fc 06 09 03 04 02 00 11 10 21 3c 15 11 0b 0e e9 c6 d9 df f1 0c 0f 15 2c 1f 27 21 12 12 0f 10 04 01 0a 05 12 18 0b 36 1e 0b fd 03 fd d2 e7 e3 fe 07 13 14 1f 1c 28 1b 23 19 18 00 00 fe fe 0e 07 09 15 07 18 f6 08 f8 fb e8 ef ff 0c 11 0f 14 1a 2b 23 1e 2b 1b 08 0b 11 fd fe 04 fd 05 11 0b 17 0a 09 02 f7 e6 eb 0d 1a 1a 1d 12 12 13 12 19 11 13 ff 01 fe fc fe f4 fa f3 ff 07 f9 fd 02 06 ee d3 d8 ee 02 08 13 0a fd 10 17 0f 0f 03 f9 fe fe f7 ee ec fa e9 e7 f9 f9 05 03 02 fc df c7 c5 ce d7 f1 f6 e6 f6 f6 ed f4 fb ee e9 ec f9 e0 df db e8 00 12 0e 05 f9 06 f8 f6 d7 ba b6 b6 bc b5 cb c8 cd ce da e8 cc cf c2 c4 c9 c5 c3 c5 de 07 01 06 05 f9 fa fe dd c9 cb e7 dd de ce c1 bd c9 c2 c4 bf b9 c4 c3 cc da e6 fb fd 03 fd 05 f9 fe fc f9 f5 fb f9 f8 04 00 eb fa f6 0c f2 fd 0b 10 fe 04 ed 03 f8 f0 05 04 fe 03
fd fa 09 fd fa 07 02 fe 07 01 04 fb 03 0d fe 04 07 09 f7 02 fb 05 fd 06 f8 04 02 07 fc 01 f8 08 07 01 1b 1a 13 1e 19 1f 26 24 1c 22 36 22 1f 12 25 17 19 15 02 f9 f8 08 03 02 08 04 08 11 19 2b 26 31 44 36 52 47 54 49 31 15 0e 12 20 18 1e 16 1d 10 07 02 fd fc 09 0c 02 14 1b 2d 2d 31 38 3d 32 3f 2b 2c 21 0f 06 f3 ee e3 ed f8 0e fa fb fe f8 02 0c 0e 15 38 2f 2f 2e 21 21 25 1f 29 1a 14 14 05 04 00 f8 e4 e2 e3 d6 ec 07 19 fd 00 14 22 36 34 27 2d 1c 08 ff fe 07 06 0c 18 16 06 08 0c f4 f8 eb f1 ef e8 fc 09 08 05 09 33 33 35 21 17 0d 11 fd f8 ee 00 f7 0e 11 03 0c 07 f8 f4 f0 e9 db da eb f9 03 13 0c 3a 4f 31 25 20 01 06 ed ee f2 f7 01 fb fa fe 0b 03 08 00 eb d7 c7 c6 e5 f9 f3 22 1d 2e 59 34 37 26 07 f8 e8 e5 f4 09 0b 13 17 19 0d 1d 09 fa ed b1 a8 bb e2 fa 0d 07 1b 37 57 35 20 11 f2 e7 db cc d8 fd 23 3a 2c 21 0c 0d 10 ff e3 b6 9f b9 e0 f9 fd 0c 16 33 2a 0c 0b eb d0 c9 bb bb d2 ff 27 2e 24 14 17 1a 05 fc d1 aa 8c aa e0 04 fa 13 1d 1a 0c e8 d8 d1 c0 bc be cd dd 14 2a 19 13 09 ff 0f 0a ec f2 e2 c2 c6 e5 14 01 04 09 07 ec d2 b6 bb d1 d7 ca e4 ff 19 2d 1f 1b 04 f3 e0 f1 f7 01 1c 33 0e fd 22 04 03 0d f9 d2 bc bb b3 c9 db d4 f0 07 26 26 23 23 02 e7 d7 e3 f7 f2 21 43 3b 24 14 f6 05 0f ee cb c2 c4 c4 d7 e9 e5 05 17 27 39 30 0f f4 f2 f5 fe fc 0d 13 2b 37 3b 0e f8 10 17 f5 ee e4 ee da f0 e5 ed 0c 26 43 4e 32 02 ec f9 03 12 13 14 18 27 19 1c 15 04 14 28 18 08 fe fa 03 f8 0e 0d 23 3a 45 50 1d f4 fa 04 1b 0e 10 0e 15 2a 35 21 12 07 16 22 30 20 fb de fa 15 0b 13 2a 33 45 2d f5 fe 01 0f 0a 03 13 1e 0f 14 33 2d 15 10 11 1d 35 12 06 eb ec 02 02 03 08 1b 1d 04 01 0b 14 0f 02 fa 14 10 0d f5 2a 0e 11 11 fc 00 1f 1a 0f f2 f5 f3 fd fd 08 0e 0b 07 19 1f 0f 0c 11 ff 0c 0c 05 e4 21 16 15 08 f9 07 1b 20 0d 0f 09 00 05 ff fe fc 0b 09 0f 13 0e 08 0f 0b 08 fd f3 f9 00 18 04 0b fd 10 20 11 01 08 09 0e f8 01 f9 fc 09 03 09 06 08 17 10 0b f0 e9 df f4 00 06 fb 05 fe 12 0d 0b 10 16 0c 01 0e 08 00 fa fa 0a 05 0a 0a 09 10 01 f6 e3 e1 ea 00 f8 ff 02 fa 0f 17 14 11 18 0d fe 04 04 0c 0b 15 17 15 0e 11 12 0a f1 dd d8 d2 eb fb 03 07 03 00 fe 1b 1b 0a 1f 13 04 f5 ff 0b 08 0b 14 08 0b 00 e9 e2 d2 e4 dc e1 02 0d 16 07 00 08 02 f5 fc eb 06 05 fc f2 f8 fc 0b fe f8 e9 df d3 d5 cc cc c2 c6 d5 e2 f6 08 fd 05 fc f7 f8 df e0 d2 e1 d7 c8 ca bd b5 bf b1 d1 d1 d9 dc e1 de dc db f8 fb 04 f9 06 fc fb fd ff 03 fb fc fc f0 fb f3 f0 eb ff e2 f5 fc 10 03 f6 f1 f1 ed 04 03 07 03 00
06 06 ff 07 09 04 01 01 05 f9 fb 05 00 09 fb fb f7 00 f9 03 fe 00 f9 fb 09 00 00 08 04 fe 04 08 09 0a 08 08 09 08 fe 0c 0d 0b 02 18 20 20 30 23 18 16 0b 01 05 04 03 ff 08 ff fe 16 0c 08 11 22 f9 ef fa ec fb f1 fb f4 04 10 19 29 24 21 25 19 f8 f8 05 fd 01 ff fe 0d 22 0d f6 f5 f9 ea f2 ef ea fc fc 0e 0b 11 26 1d 26 18 1a 1c 0c f5 0f 06 fb 04 0b 12 0d fd f2 fa 00 f6 f7 f8 07 0e 07 17 13 11 14 19 0b 19 1c 0b fa 02 0f 0b 08 01 fb 07 ed e5 f3 f1 f6 f2 02 fe ff 10 fe 01 02 07 11 15 12 1b 10 0c 10 11 21 09 01 11 ea f0 eb f8 fb ef f9 f1 05 fd 0a 02 11 06 0e 0f 1a 0e 0d 0c 17 17 14 12 08 09 02 0d ed eb e4 f2 e9 f2 f6 fe ff f7 ff 02 10 11 17 21 1f 19 1a 08 0f 20 20 1e fb 06 fc e1 f1 eb df e6 f8 f8 00 ff 07 02 04 fd 14 16 20 1b 19 19 0a 02 12 16 33 27 12 0c fb ea e6 dc e7 e7 f1 03 0b 01 06 f7 f5 07 13 07 09 0e 03 02 0d 0c 01 20 57 44 1d 01 ef ed fb df e5 e2 f4 0a 0e 10 00 f5 0b 25 2f 21 04 00 01 01 fd 04 10 2c 5a 45 24 f6 f5 f1 df e3 ea e6 05 14 09 fe f3 fa 18 45 3c 21 f5 f3 ef f5 fb f9 00 20 39 31 1a fb f7 e2 d4 e0 ee 06 1c 19 05 06 fe 05 2c 45 31 0b e4 f9 f7 df e2 ef fb 0c 1e f9 f4 e7 10 f6 e7 eb f7 08 1e 14 0c 0b 0b 0f 27 37 14 fc e2 eb e4 e4 dc f1 00 17 0d e6 cc eb 13 ff e5 e7 f2 0c 0e 0c 0c 09 09 16 23 15 fe f2 e1 e1 e7 d8 e2 01 05 0f 0a f1 db f3 01 10 0a e3 f4 01 f4 00 ff 06 1c 0d 19 02 e5 e2 df dd e9 e3 f7 fa 00 18 12 e6 cd ea f8 13 03 f7 01 12 fa 00 06 07 18 06 f3 e8 dc d4 e5 e4 ea f4 ff f0 06 19 0a d6 cd e4 fc 0e f7 07 fd 11 0a ff 00 00 09 f0 da c4 db db e6 e5 f3 f6 00 07 14 15 03 d4 d7 ff f0 0c 02 03 00 02 17 0b 0f 12 0c ed d9 d4 da e3 ee f4 f8 fe 05 0e 1e 08 fa e5 da ef 14 09 17 07 fd 01 12 0a 1c 17 1c 09 fe ef ec f2 fc 03 0d 0c 13 15 16 0e 00 e0 e0 fe fb 08 0b 06 02 0f 06 0b 1e 28 2d 1e 15 14 09 ff 04 08 0e 11 18 13 21 0b f7 f1 ed 0a 05 02 f7 05 05 04 14 11 0c 14 1d 23 25 18 1c 18 0e 15 09 0c 14 10 03 fc ee ec 01 fe 09 02 07 00 ff fd f9 f4 02 04 04 10 16 28 22 19 17 0d 0f 06 08 08 ff fb e4 e9 ff 00 f9 09 1a 1f ff 0a 01 f6 fe 0c 0f 1a 20 1e 18 24 1b 09 f9 f3 f1 f8 fa f4 ee ee 00 fc 03 01 fe 1a 0a fb 01 f5 00 16 1f 13 21 1b 0c 06 fd f2 ec f7 ee eb e9 fd fe ea 04 09 09 f8 05 08 f0 f1 f5 07 09 13 03 fc 05 f1 eb f4 f3 fe ec f5 f4 00 0d 1c 20 00 fc 06 01 03 f8 04 0a fa 08 01 f7 f1 01 fe 00 f1 ed f3 eb ee e2 f0 0b f3 f1 f9 12 fd 07 00 f7 fa f8 01 03 f8 f8 f7 03 fa 0d 08 00 ee e9 f9 f3 e5 e5 ea ec e7 eb ea fd 07 fd 08
02 01 08 ff fc f7 05 f7 f9 09 f7 07 04 02 f9 fa fa 08 fb 08 02 fa 05 fc 04 08 02 03 f8 fa 09 08 fa 07 fe ec f1 e7 dc f8 0c 05 0a fe f6 f7 f1 05 f6 f4 f7 f0 00 fd 02 fa fe 06 f4 0c 0d f6 f3 fc e4 d2 cf dd ec f8 f3 fe f5 ea ef e7 ed e5 db ed ee ea 02 fb f9 f9 09 fe ec 0a 09 f1 ec d4 dc dc e9 fc f2 07 f3 ec f5 e3 e9 e6 d6 de ee fa f5 f7 fd 06 0a 10 1a 1e 07 09 0a 04 fe 06 12 22 24 1d 14 00 04 fa f6 fb f0 d2 e3 f1 08 fa f8 02 06 0d 1d 16 14 fc f0 fb f4 01 0d 19 20 19 15 06 01 fe 0c 02 f2 dd e3 e4 e4 ea 00 14 f4 1d 0b 06 fd f6 ea e8 f4 01 01 04 0d 0e 0e 07 10 11 0f 0f 09 ff d9 dd ed e7 fd 0c ec 18 19 0e fd f4 f7 f7 f6 ee fe fd 0b 0b 03 0e 11 1b 19 16 0e 08 e2 df e7 f4 08 01 ff 11 1e 0b 09 07 ec e7 ee e8 10 0b 0e 0b 17 16 26 16 12 0f 1d f1 e2 d0 e9 05 02 f8 05 13 0d 09 02 fa ef ec eb ed ff 15 27 28 15 1b 1f 24 25 21 11 00 cd cc e7 f1 fd fb 0f 1c 0f ff f4 f3 e8 e4 e9 00 0f 2c 37 24 21 21 28 29 20 13 0f f5 d8 be d6 08 f9 0c 14 22 01 f0 fb fa f8 f9 13 22 26 2e 3e 2a 1c 22 1b 27 2d 13 1d 0f fc d8 00 07 ff fb 02 0e 02 fa f8 02 f4 0b 17 1a 25 38 42 36 20 18 1e 0f 16 10 24 2e 2b f9 06 0a 0e 07 08 12 f8 f9 ff ff f8 0e ff 04 12 2c 35 27 18 0c 13 fb 06 f8 03 11 01 f1 ea f9 ed 12 0e 00 00 f7 ef eb f4 ec f4 f4 0b 26 33 27 0b 11 03 f3 f1 f3 ed f9 fb ed dd f2 f1 08 11 03 04 f3 e6 e6 f6 f6 e6 ec 02 23 2d 16 06 fe eb f1 f8 ef 06 0b ef de e1 f2 fd 17 1c 01 04 f9 ee 02 08 f7 ec de f2 0a 15 01 f7 f5 ef f0 ee f7 fd 0f fa c3 d9 f4 f8 0d 0b 0c 12 fa f4 08 fd fe e8 d8 ea 06 f9 f5 ff f2 f0 ef f7 f2 0a 10 ee cd e8 0b 06 17 10 0c 00 fb fa ed 08 fb e5 ed e1 ef ec f9 01 08 f5 f6 f2 f7 09 f5 e3 d8 e9 fb 15 0d 0f 12 09 10 0a 02 f6 ff f5 da e2 ed f1 ff 03 00 05 fb ff f9 03 f0 ec ea e3 fb 02 0e fe 01 04 01 12 0d fe 01 f1 f0 e9 f3 08 01 0f 08 fb f6 09 fd ee e8 e6 ea f8 08 09 03 03 05 07 10 26 1a 02 06 0a f8 f4 fe ff 06 05 04 fb f8 f5 f7 ea d5 d9 f5 f6 05 09 ff 02 fd fa 1c 19 1c 08 ff 04 03 09 10 19 13 11 08 fa fb ea dd dd d1 d2 e9 05 f9 f8 f9 19 0f 03 08 10 16 12 0a 09 0d 1a 1e 0b 11 14 1c 02 ed e7 da da d8 df e2 0c 02 08 ff 01 16 0d 00 05 10 0d 10 1d 24 11 11 0c 0f 0b 00 ff 01 ec d5 dd cb dc e9 02 09 fd 05 00 f4 f2 f1 fd fd 14 06 09 0c 08 f6 f7 f5 ec ea f1 0d f2 d9 d2 e0 f3 f2 f6 fa ff f8 06 fb f7 ed ea 01 f3 ec df eb e0 e1 d4 df e0 e6 ee e7 e7 f2 f8 f4 fc 03 fd fe 01 01 02 02 fe fa fa ff f9 00 e5 f8 ee fe f6 f4 fa f4 f3 fe fa f3 fc fa 01 fc fe 07
fd 05 00 ff fd 05 04 02 ff ff f8 f9 fd fe fd f8 02 fd 04 f9 ff 04 fc fe 04 09 ff 02 fe fd 07 fb 0c 09 00 04 03 fc fc f7 0f 03 09 09 db ea 0c 18 11 17 17 03 04 fc ff 00 05 fb ff 03 0f 0b fa fa e9 e1 e4 db ee ec f1 f9 01 04 0f 29 1a 12 1f ef ed fa f7 01 07 09 12 0d fe f9 f3 e8 ce ce c8 c1 c9 cf d6 ea ec f9 08 12 09 1d 25 0f f7 00 fc 07 f8 f8 fc fc f1 e1 e2 d1 bf b2 b9 b2 c1 cc e4 e8 eb ef 0c 03 10 23 1e 29 17 03 f3 f1 f8 09 f5 f3 f4 da cb c0 a5 a7 a9 cc d0 ed e6 e3 dd f1 f5 0c 1d 18 1a 29 27 13 1d 0d 08 ee 05 ee f3 d5 b8 b0 a7 a5 b3 dc ed f6 06 f1 fa 03 18 26 25 0e 17 1b 38 28 23 10 f7 e0 f4 ed ea c6 b4 ae ae ba c7 ec 03 0d 1e 16 0c 16 1e 20 33 25 11 1f 29 31 0d 16 fa e5 f4 ed e3 d1 ba af b5 ba cf f0 0f 1a 15 13 03 02 05 08 0f 1d 17 28 3c 41 1a fd 01 e9 f0 d8 ce c3 bc a7 b5 bc ed 19 27 2d 2d 15 06 ea ea e3 ea 09 17 3b 59 51 31 06 02 fb eb df cb b0 a6 bc d0 e6 0d 35 40 43 3e 2d 05 e6 d3 cf d0 e6 ff 3e 6d 6a 38 f6 fc fc ef e0 d4 bd b8 c7 e5 fb 11 2d 3c 40 40 2c 06 df db be ad c3 c3 fc 2b 49 2b 04 05 fa ed e2 d6 c6 cd e0 f1 02 11 20 33 46 3d 3b 0d ea ca b8 9e 89 84 8e b8 df fb f0 11 00 f6 f8 e4 d2 dd ed ff 0c 17 18 3c 43 49 3c 17 f1 e3 cd b9 8e 81 82 a1 bb d2 f1 0b 04 fe 05 d8 df ce d5 f7 0a 15 0c 2f 39 33 35 0e ef db d8 dc a3 8c 9f aa d8 e6 04 00 09 fd f5 ea e2 d2 c7 e5 05 02 12 2a 25 31 20 06 ea e3 d0 d2 bf a6 ad bf d0 de f2 f7 f0 eb fb f5 f0 e0 c4 c5 d6 f0 08 13 22 25 1b fb ef e0 db d6 c8 bc a8 bc d0 d5 e8 fe 03 ed ed 07 1c 0d df d2 c7 de ea f9 17 1d 19 f2 ec e3 dd e4 d7 c9 bf da d1 e8 f5 f7 fb e9 de 02 09 23 07 e7 ed de ef 08 22 2b 19 f9 fd f0 e2 dc cf ba bc cb ef f7 fe 11 ef fd de f6 f9 13 0c fe fa f1 0e 0b 27 19 14 0b f3 fc ea db c3 bf ca ec f4 0b 03 01 ee f0 e0 d6 e8 ff 04 10 02 10 0b 11 16 0a 07 00 08 f3 e3 ca cc bd d1 eb f2 08 0b 10 02 eb ed ff fd fe 08 10 1a 0a 00 f5 f5 02 07 fd fd e7 cd d0 d9 c5 cd f7 f5 02 06 0c f6 e8 ed f8 02 e7 f3 01 0a 04 f8 03 f2 02 ff 0b 04 ea e2 e0 ca c7 ea ff 02 0d 02 01 fb dc e4 f9 10 fd fa 08 17 09 ff 03 f4 f9 fb 0e 0d e5 ea dd cf d1 eb f7 00 0f 01 06 ff e9 e0 f0 02 fd 03 00 0b f9 e7 f1 ef f4 03 08 15 18 f2 e6 ea f2 09 ff fe 13 01 09 04 00 e3 f8 ff fa fd f9 fb fd ec fb ed ed fe 1e 2b 28 0a 1f 1b 15 19 ff 01 f8 05 fc 06 fe 07 1d 0d 18 fc f3 13 0a 0f 11 0f 10 18 26 3f 27 09 1e 12 14 fe 04 01 f8 08 f8 fe f7 fe fa f4 f0 ec f0 01 01 06 0a f0 0e 13 ff fb 01 09 00 f9 05 fd f9 f9 01 fe
fd 02 f8 f9 fe 05 fc 01 fe f9 09 07 fb 09 06 02 06 fc 02 fc 04 08 09 fe fc 06 09 01 fa 04 fb 09 ff 09 02 fe f4 f8 fd f9 f2 06 00 fa 1b 18 f7 f8 f8 fb f4 04 fa fc 01 09 fa f8 06 fd 02 f2 f2 fc ff 04 09 02 06 02 f7 fa fc ff f2 e1 f4 f3 f0 fc 07 0f f8 07 01 ff fb 06 f7 f4 fd 0b 11 13 23 1f 26 1d 19 00 03 03 fa e0 f9 ee f0 f3 08 02 f9 02 fd 08 fc f7 f7 f4 11 12 1d 26 26 2f 2c 20 22 23 20 0d 0a f3 e0 de d0 ce f4 0a 12 05 03 fd f5 fc f8 f3 f0 ff 0b 01 0e 1a 1a 1d 2a 29 29 2b 16 0d fc f2 ec c8 de 1e 0c f6 00 0a 0a ff ec e6 f2 fb fb 09 12 10 1c 2e 34 47 36 3e 2f 20 0d 0e f4 e6 e6 0b f7 ef f3 18 03 ea fc f2 fc f1 05 f5 02 0a 22 23 3a 4c 53 33 34 1f 1c 13 12 03 fe fd f9 02 10 fa f1 f6 fa f3 08 f6 fe 03 0e 02 0d 20 23 32 3f 2f 31 2e 24 1e 1d 2a 19 0b 16 1d f4 d7 f5 0b f8 fa 03 f5 fc 06 0a fc ff 01 fb f1 02 19 2b 29 21 13 20 2a 28 25 20 fc f9 df f1 02 01 08 08 f7 f7 f9 f8 f5 e4 db e2 bf e3 f6 15 19 15 10 14 2a 16 0f 04 09 f7 01 eb f4 fc 01 f3 f0 f0 e6 f7 f2 d9 eb d4 ce d9 f1 01 1e 1a 0e 14 10 1f 1e 1f 10 f7 f2 e0 eb 03 eb d8 e6 f4 ee ea dd e2 ff ec d7 d5 e9 f8 0f 11 04 ff fd 04 07 10 fc f4 f2 f0 00 e9 ea e6 e2 e7 f5 f2 eb 06 1b fc f0 ee ed f3 01 fb eb e1 e3 e9 ff 0c 08 11 e3 d6 f7 e7 ec ee fa f7 ee ea 00 16 10 03 f9 e8 eb ed d3 e1 dc cd d3 db f8 1e 06 04 ec e3 f7 02 fb f4 f4 f7 fb 0b 07 19 0e f1 f2 ed ea e0 db d0 cd ce cf f0 fb 1a 11 08 f2 01 1c 17 14 02 ef fa ff 0a 1d 0b 03 de e9 f6 f1 ea d4 cf cd db e4 fb 08 20 19 09 f2 07 21 22 19 0a 02 fc 07 f9 02 fd da d0 f1 00 02 e1 de e3 ef f7 ec ff 0f 0e 17 16 f6 f7 0f 17 1c 28 15 04 00 04 f4 db d5 d9 f7 07 0c fc fa fd 06 0c 12 10 1a 0e 07 ef 08 f0 f5 1c 1f 25 1a 18 13 01 e9 ee eb ea 03 01 0a 15 02 0c 0e 20 1a 13 18 0e 08 02 06 09 10 2a 29 32 26 11 0f 0d fa f9 01 f9 05 05 06 05 0c 0e 19 22 11 0e fd fb f5 f4 09 19 16 1d 13 22 1a 15 17 09 0d 09 04 0e 06 10 09 10 18 0b 16 20 1f 11 10 18 fc f0 fb 21 16 06 02 10 19 18 11 17 2b 25 32 1a 0f 1a 00 03 07 12 16 1e 1e 13 09 f0 02 06 fe 0a 1b f1 e4 f3 0c 20 23 2d 2c 28 2f 2b 2a 25 15 16 13 20 10 1d 26 22 fe e8 07 02 fb fc fe e6 cf d6 f4 16 1b 1c 2b 35 31 3b 2f 35 26 2d 27 15 13 12 19 2a 0c fe fe 01 f9 0f f1 ec dc fe 04 05 0b 15 1a 2b 2f 23 38 47 3e 3d 36 2d 23 0e 17 19 00 10 fe 08 fd fd 0f fe f8 05 11 04 13 1a 1e 2f 30 2d 1e 24 21 23 1b 25 20 03 0c 00 fb fa 04 ff fb f9 00 02 05 f4 fa fb fd f9 f0 00 ec ff f5 ea df f4 ff ff 06 01 f5 01 02 f7 fa
06 f9 f9 fd 03 f9 fc 06 fa fb 01 09 00 f7 0a 0a 03 ff 02 02 01 fe 01 07 00 02 fe 02 fc fc 08 fb f9 ef f7 f0 ec f0 ec ee d9 f5 0e 16 20 06 ee eb ea f2 fa fd 01 03 07 09 05 04 f9 f7 00 ff fa ef 06 0a 06 fe 08 0c 0e 0e 16 00 01 f1 e0 e1 e2 f4 01 fd fb ff f9 07 0e 15 08 0c 10 13 22 2a 20 2f 2b 2f 24 36 34 2a 19 0b f3 e8 e1 d2 f0 f3 ec fd 01 fe 03 0e 0f 19 19 1f 1e 1e 23 1d 19 14 22 23 22 20 1c 18 06 ee e1 dd e0 e5 ee eb f8 fd 0c 1e 0e 20 0f 0d fa fe 12 0a 03 0f 11 10 1d 0e 10 08 0a 05 f5 e9 e9 d7 e4 f5 07 12 00 1d 18 fb f7 f8 f3 00 09 11 1d 2a 24 1f 13 15 17 0f 0d 04 03 e1 dd b4 e9 ec fb 16 00 1d 1a f7 ff f1 f7 fa 14 27 31 31 36 20 1a 12 0c 10 13 0b 0a e1 b6 ba ea f5 f0 04 06 fe 13 fc eb ec f9 06 18 1a 11 12 20 27 11 17 0d 0a 11 05 12 fa bd d8 fc f5 0b ff 09 09 08 01 ed f1 f2 f9 f8 e4 d8 ca f6 17 1b 1f 11 03 0e 0d 0d f4 d2 e3 eb fb 14 02 07 12 e5 f4 e5 d7 df cf bf b5 a1 a6 e1 0c 23 1f 1b 0f 07 06 02 ea e7 07 f7 0e 0d f8 f6 02 de da cc bc c2 b5 b6 b0 a2 a2 f6 10 13 12 12 14 fd f3 f0 df eb f7 f3 14 02 e9 f2 ef d2 bd ad b0 bb cf c7 b3 ba cd 0c 0f 05 08 11 0e 03 e9 da d1 d4 01 ff 0b 0c fa f7 f5 cf b0 b5 ba db d9 df c8 d2 08 29 0d 0d 11 00 f6 e8 e3 d1 d1 e7 0f 19 fe ed f7 f5 09 e3 cb dd e0 e3 f6 ee e3 fd 1b 2e 0e 0e 08 0a f4 f6 e4 dc cd f1 05 20 11 ee 02 0d 15 0d fb 0d fa ea f7 fd f9 07 11 1b 09 07 ff f9 f9 e8 ed d3 d8 f4 0c 20 13 fb 09 16 2b 2e 28 14 ea e6 ea ee ff 06 10 20 01 f9 f4 ff f2 eb ee e5 eb 06 14 21 1a fe 0b 13 2e 39 2d 24 fe f2 df f0 f1 ff 1a 16 13 fa f4 fb f7 e9 ef ee e9 10 38 18 17 0a 1a 0e 3a 2c 36 21 1d 03 f5 f0 f1 09 19 1b 0f 06 0e 0b 12 04 05 fb fd 23 3c 17 18 07 f2 fe 24 2a 22 20 2a 1e 21 0b 0d 0d 19 0e 10 13 18 17 16 05 09 07 fd 1e 3b 31 14 06 f6 0a 22 29 2d 28 32 2a 31 16 14 01 03 ff 00 17 0c 19 14 08 0d 06 08 1e 24 12 ff 09 0b 23 1e 25 1e 2f 29 25 2a 18 11 fb f4 ea 00 04 07 0a 1c 13 0a 03 18 22 15 05 fc 07 0a 27 1d 22 32 27 28 2d 19 14 f1 de d6 de ef f7 ff 0f 18 12 13 16 17 25 07 f8 05 08 ff 0d 21 1e 2f 2e 26 08 08 f2 f5 d4 d7 d2 da e5 00 08 0d 11 1a 13 17 1c 0e 0f 09 00 01 05 15 27 2b 1b 10 01 e7 ea ee e4 f0 ea f6 f5 0f 0a 05 11 1d 20 1e 25 17 11 fd 01 fe 05 fa 09 1d 13 19 18 1b 0f 0f 1f 0d 0a 0e 27 27 29 18 1b 30 16 0d 0d 09 0c fa 04 ff fa 01 fd fc f6 08 06 12 0f 01 07 16 21 2b 2d 2b 35 2d 33 1c 18 04 ff fe fb 08 fa fa 00 f9 05 07 07 0e 07 fe 00 05 00 02 03 04 ff f4 03 01 08 ff 05 03 f7 fd ff fc
00 04 fb ff 02 f8 f9 fd 00 fc 01 07 06 fc fc fb f9 07 04 08 06 00 fb 00 00 fa fc f7 08 f8 00 08 08 0f 06 07 1a 04 0d 05 0c 09 e6 09 fb 08 19 14 0d 08 0b 09 fc 07 fd 03 03 ff fd 11 17 13 01 05 05 f6 e8 ed e2 d3 c2 b8 d2 ed f7 f3 f0 f5 f3 f6 f3 01 04 f7 07 02 ee 0a fd de e8 ea fb f4 f2 f6 ec f7 f6 f2 fc 06 05 03 01 08 04 f5 fd 0e 10 fd 09 ff f0 09 d9 d3 db ec e8 fb f6 fa f7 ea fc 00 fe 07 09 f1 ee fd f7 fc 12 13 1b fe ff fc ed f2 d8 e4 e2 f7 f0 f2 fb fb fe 01 fd f3 f5 fd fb f4 f5 e8 eb dd f8 21 24 f0 fa f5 15 fc d8 e6 f5 ee fb 03 07 19 0a 19 15 1d 23 21 1a 0a 14 0a 04 f7 0c 17 04 f9 11 fe 09 0f e3 e7 fc 08 0d 14 29 27 21 28 17 28 21 2c 23 1d 24 11 08 18 2f 25 fc 0b 14 1a 14 06 ed 00 07 17 1b 23 18 28 2e 22 19 20 29 18 20 1f 24 1c 22 3b 49 3a 11 16 02 0f 13 1d f9 fd 0b 0d 1d 15 18 1c 23 1d 26 07 0d 21 20 23 23 25 2e 45 5f 57 31 24 0c 0b 29 1b 0e 12 0f 15 22 28 1a 1b 23 2e 32 19 16 19 21 2b 27 28 3c 4d 62 51 43 13 06 1d 35 26 1d 0e 28 1f 24 15 1b 1b 2d 49 20 fb 07 0f 1c 1a 16 20 2a 2b 52 43 38 10 05 15 2d 23 1f 23 2e 2a 1c 0e 09 10 10 0e fe f1 fd 0a 0d 0d 0b 04 14 20 14 03 0f f1 ee 16 26 28 18 20 1a 14 08 f9 f6 f1 f1 e6 dd ee f2 f6 fc 05 08 08 0e 0c 0f ee e3 fc 0b 0f 23 05 01 11 12 05 ef f6 f6 e0 dd d7 dd e9 da fb 0a ff 04 09 13 1d 1b f3 e3 f3 13 09 0d f0 04 06 fc f2 e2 f8 00 e4 ec da d6 de e1 04 12 09 18 0b 1c 20 13 e1 d9 e9 0c 00 01 fc 0b 10 08 f6 f1 f3 ff f6 e7 df de ec f1 0b 0a 0c 0e 03 13 14 f9 c9 d2 eb 02 fc ea 04 0c 18 17 01 f7 fc fd f7 ea df e2 f1 00 10 fe fd 03 00 00 13 0a cf ef 0f 0e 04 06 00 05 1a 1f 05 12 08 04 ff e3 ef ef 04 fc 05 07 04 00 f9 09 f8 f4 dc eb eb ed 1b 11 00 ff 1c 1b 11 21 1f 19 0b 0a f8 f5 fe f3 fa f8 ee f5 e2 03 03 fe e4 e0 f7 09 0b f8 f3 f6 16 10 06 0f 0e 10 0c 0a 17 ff f4 f5 ec e8 db d8 e3 00 ff ea f1 e9 f8 ef 01 f4 df f7 f9 05 12 09 0c 01 13 14 16 06 fb f2 e0 de e2 d8 eb f0 f2 f1 f9 02 ff ec f4 f1 e2 e5 e5 f5 0c ff 06 ff 10 14 24 13 14 07 f7 df e6 e6 e6 fb 01 fb 01 09 06 fb f8 f2 00 fe f1 03 08 07 0c 11 17 16 11 1d 14 09 f2 dc ea db e6 f7 0b 04 01 ed 05 03 08 00 1b 1c 21 13 13 13 14 1d 1c 23 1c 1d 22 0a ff fb fe f8 ee f2 fb 0b dd ed 06 f9 01 f4 0e 21 20 22 24 28 27 22 37 30 2f 2c 2e 38 35 2c 39 12 1e 28 16 24 eb ef 02 f9 fb f9 fc f5 fa 0d 1a 1e 21 29 24 32 2f 39 38 34 41 38 43 2a 21 27 02 05 02 fd 05 fe 09 00 03 07 06 0d 1c 20 1d 29 10 1d 2f 33 25 1e 2c 26 23 0a 06 0e 1a 01 f9 08 07
07 fb 01 f9 02 01 fd f8 f8 08 05 ff f6 ff f9 00 06 fc f8 03 f7 01 ff 04 08 fa 02 05 f8 09 00 fa fe 02 e7 e7 e2 f0 eb dc d4 e3 e9 d2 d4 e8 f3 f2 db f5 f0 f4 09 f9 09 05 05 08 06 f5 fd f5 e6 d4 cd cb cb c3 cd c1 d3 cd ce eb e4 e2 ed e2 e6 e7 e7 f9 07 04 06 01 f9 e9 fc f5 e1 c8 c6 c7 be c4 bb b1 bc c0 d5 e1 f0 ee ef f3 ea f6 de f0 ee 05 fc 03 f9 00 0a f8 ef e5 cf cd d2 da e5 d3 d7 e4 ed f0 f5 f5 fd 05 0c 0e fb fa e5 ee ff fd fe 10 fc 04 05 fe f9 f9 f9 01 ef e7 e8 ed ea ee f1 e8 f3 f8 07 10 03 f6 e8 01 fe fd 15 14 02 09 0a f7 01 09 04 0c f9 02 f6 ea f0 fc 04 ff 05 06 05 13 0c f5 03 fc 08 07 13 12 00 fc 01 fa 0a 0d 06 0f 06 05 fc fc 02 16 0e 0c 11 0c 0b 07 06 02 08 fb e9 11 10 17 fa fa f5 04 0e 08 01 fe 06 03 f2 fb 07 1f 12 08 04 0d ff f9 00 0f f1 f4 0d 15 0f 14 02 ef e9 eb fa fe fc fa 01 01 f7 08 15 12 0e 0e 03 02 fc f3 f8 07 f7 fc 0d 21 0f 0a f8 ee ea ee f4 fc fb 04 05 ed f2 12 24 17 0d 05 00 05 f3 e0 f5 11 f9 fe 0d 0e 1c 16 fe f5 f0 f3 01 0f 0c 17 06 d6 ef 1e 30 19 05 fd fd f2 f4 d3 d2 00 ff fd fa 16 21 13 06 e9 02 13 15 10 1b 13 00 e7 05 2e 21 0e 0c f0 f1 e5 f0 d5 e6 fa f3 01 f9 19 11 0d 25 0e 0b 19 21 1c 22 12 ef e6 13 19 29 1f 02 fd 06 ff ec dd db e5 f2 f8 02 0d 1f 27 23 22 1c 1a 17 1b 14 09 07 ff 0d 1b 2e 21 12 18 0d 08 fd ef d0 e5 d8 f3 f9 0b 0c 0b 0b 08 15 1a 26 1d 26 1c 17 f4 0a 24 26 29 22 16 0d 10 11 f3 c2 ca f3 00 02 fa fa eb ec fe 03 15 24 22 1a 20 12 fd 20 33 23 21 1c 11 02 f9 ee ea c9 c6 e3 f0 03 09 f3 e5 db eb dc f6 fa f5 fe f4 fc 02 20 20 20 1d 04 fd ed e8 db d7 d4 d8 f0 e9 08 08 0d f4 da d7 d0 c6 c6 ce d0 db de f4 0c 17 04 01 fa f3 ec e0 cb bb c0 d1 fb f3 09 07 11 01 ea cf c1 ab b0 b2 b4 c3 c0 d6 f9 00 ff fd e8 ef ea e1 b9 ae b8 d6 ff 08 f8 fe 13 06 ed e8 d0 b7 c1 c3 c7 c0 c0 dc f4 fc 00 fb e4 e6 e3 da c1 c5 d6 f6 fa 06 10 06 19 0d 03 f8 e8 ec e4 df d9 e3 e3 e5 e4 f8 fe fb e2 ea e0 e5 d1 e0 e3 f7 f4 f9 05 02 04 0a 0c 1d 0c 0a 0f 07 04 f8 ee e8 f3 ff fd ff ec e1 e6 de de e3 e8 e5 f5 f7 fc 02 f6 1e 2d 31 31 2b 29 2a 24 10 00 01 ff ff 06 02 f9 ef d9 e1 f4 f4 fb fa 1c 02 f9 00 01 24 31 44 40 2e 23 18 1c 15 01 05 06 06 f6 fa f5 e9 f8 01 fc 06 ef e9 ff f8 02 01 01 16 32 42 30 35 34 23 20 0f 15 09 0a f7 fe f4 08 ff 02 01 04 0d 01 01 f6 08 07 fb fd fe 1c 1f 23 0d 18 1c 13 13 10 15 21 26 1a 0f 0e 13 05 09 f7 fb fe fd 08 06 02 f8 fc 03 05 fb 09 01 ff fb 08 00 fe 12 05 13 16 25 14 14 15 18 04 09 07 09 fc 01
03 fe f9 fa fa fd fa fa 07 06 fd fb 08 07 fc 03 fa 00 f8 08 09 00 07 f8 fc fc fb 02 01 03 04 04 f9 02 05 fc f8 f9 fa f9 04 fb fb f9 03 fa fe 06 03 f8 04 fc f7 ff 02 f8 03 05 09 01 09 04 fd fc fa 02 05 02 fe fc 00 04 04 01 fa f8 fe 06 f9 00 ff 06 07 04 04 09 03 fa 02 09 03 ff 09 06 06 fd f7 fe fe fd 05 01 01 04 02 fb 05 fb 02 fd 04 f8 07 02 fa fa 00 fa 03 01 03 00 f8 02 f8 f9 03 fa fe f8 ff 05 00 fd 05 f9 f8 fa fa 07 fd 08 04 f7 07 00 fa 03 fc 00 fb 07 06 03 f9 01 f6 fd 01 fc 0b fc fa fd 04 06 fd 06 fa fd 00 04 02 fc fc ff 06 f9 01 f9 f8 f7 fd 00 fb f5 fe f9 0a 0a 06 01 f6 07 09 00 05 f8 06 fe fd 06 fa ff fd 09 fb fd fc fc 00 03 02 f6 fd 05 09 00 ff f8 fe f8 04 fb fa fc 05 fe fe 05 fa fb 01 ff 00 fc f9 fd 07 03 f9 06 fc 07 fb fe f8 f9 04 03 06 f9 fb 04 03 f9 fb fa f7 03 01 fa 01 f5 07 fb 00 f8 fd 06 00 02 02 f8 fb 02 05 fb fb fa fd 02 00 05 f8 f9 f8 fc fb 08 01 03 01 f5 f6 fb f8 03 f9 fc f9 04 06 ff fe 01 02 fe 05 fd 04 fe 07 02 04 fd 0a ff f9 04 ff 05 f8 f9 fc fe 00 0a f6 01 03 04 f9 fb 05 04 01 00 f9 03 f9 09 fa ff 05 01 fa 06 02 f7 f6 fc 02 f9 fb f9 f6 03 f7 ff fa ff fc 08 ff 02 01 04 fc fe 05 f8 fa 00 f9 01 f8 fd ff fb fb ff fd 05 07 fc ff fc fe 06 f8 03 01 04 03 00 08 04 f9 f6 02 f9 04 05 f6 02 f8 05 f8 00 00 fd f7 f8 02 03 fc fc 00 07 fa ff f9 fb 01 f6 fa 01 fe ff 07 f5 f9 fe 05 f7 05 02 02 fc 06 fa f7 08 f8 fb f8 f7 f9 f9 06 fc fb 00 ff 04 f5 f6 00 fa 04 fa 02 00 00 fa f8 ff f9 fe 07 01 08 09 f9 06 02 f7 ff fd 01 fe 04 fe fd fc 07 fd fc f5 f9 ff f8 fc 01 01 07 03 05 f6 fd 08 00 f7 ff 06 fd 08 02 fe f9 f6 fb 06 fc 02 f9 04 02 01 06 04 02 f7 01 06 04 ff f7 fc 03 fa fd fb 06 f7 fd 01 01 f7 05 f8 fb fb 03 01 fb f8 f7 f8 00 01 fb f6 fb ff fa 03 03 09 02 09 02 fa fd 02 03 06 01 ff 04 03 f9 02 05 f5 fe f8 03 f6 f7 f7 f8 f6 04 ff f9 fa 03 02 fd f8 f9 fb f6 fb f7 05 f5 06 f9 fb fb fa 08 f8 fc 07 00 02 02 fe f8 07 fc f9 fd 02 f9 09 fd 04 fd 03 02 ff 00 fb f7 fe f8 08 03 ff fc f7 fd fd 09 f7 08 f9 07 07 01 05 04 f8 08 f9 ff 02 02 fa 07 f8 00 00 fc 08 01 fd 08 01 fc 09 00 ff 05 08 f9 fb fa f9 06 02 fa fe 06 f9 ff fd fe f9 fa 05 06 05 f8 01 04 00 06 05 fe 02 f8 04 06 07 04 fa 04 f9 fd 05 06 00 ff fd 00 fb f8 03 f9 ff fb 06 fa f8 04 f8 fb 04 02 03 fa 00 f9 08 04 f7 f9 fa fc f6 fd 02 fb fb f9 00 fc fd 02 fb 06 ff f8 06 fa 09 f9 04 f9 f8 fd 09 f7 f7 05 fd 08 01 04 00 fc 08 ff f9 fa 06 00 04 03 ff 03 fe 05 f9 06 01 f8 fc
f9 fa 05 f9 03 f7 fd 04 fc fb 03 fa 04 0b 04 00 03 f8 fa 02 fe f9 04 f8 f7 fa 03 03 04 ff 03 07 fc ff 12 27 13 19 20 07 10 17 0d 0d 0a 02 12 16 1f 10 19 18 fc ff fb fc f7 09 fc f1 fd 14 15 26 34 38 3a 2d 28 24 26 22 1a 2d 30 1f 24 29 20 1f 04 fa f8 fa fd fa 04 fd 06 fb 17 0b 0f 1c 20 19 0c 0d 09 0b 0e 0a 1a 28 1e 1f 2b 25 21 09 13 08 fa f8 ed f9 f0 e8 f9 00 f7 ff 0d 08 fa fe 01 f6 14 16 0f 15 23 20 1c 2d 24 26 19 0e 01 f9 06 e4 ec f3 f4 08 0c 17 09 05 0f f6 f4 00 fe 07 04 07 15 12 1f 32 2d 31 1b 11 f7 f5 09 ec ff 00 ff 1a 1c 11 0a 0d 03 02 f7 f6 00 f2 f7 fc fd 05 0f 29 3e 59 2c 1d 03 f7 16 f3 f4 f8 0b 19 1f 14 1f 17 0f fd f1 f9 ef eb f2 f6 fe 0f 15 13 49 5c 3e 1d f2 12 13 fd ff 0e 0c 20 18 1c 28 1f 22 0f ef ec dd ed e4 ef f4 ff 05 09 3f 55 37 16 0d 1d 01 fd f8 12 08 0c 1c 23 1e 28 24 12 ea d4 e7 df d8 e5 eb fa ff 04 23 41 34 15 13 18 06 fd 05 03 0c 16 21 29 35 2e 28 07 d7 dc eb eb e5 ea dc f7 f8 fd 03 28 24 f7 05 1a 25 fc 15 11 0d 25 1f 37 24 22 13 f5 e6 eb 1c 03 f6 ea e8 e9 ed f6 08 1d 19 fa 0d 21 43 0f 0c 09 09 11 26 15 18 12 fd ec d7 01 2c 19 05 f7 00 0a fe fd 03 1f 15 12 f6 11 24 0e fe fe f9 01 0f 04 17 14 02 f6 f3 17 29 14 03 1a 1c 10 06 04 09 14 14 16 04 fb 16 09 eb e5 f3 f7 f7 09 0f 18 ff 03 19 22 2e 1b 13 23 1c 0a 0e 08 f0 15 06 08 0a f4 00 08 e0 e5 fa f6 f4 01 0e 0d 11 26 32 3a 31 2e 22 20 0f 00 f9 f8 f4 0f 0a 18 0e f4 ef f5 e4 ed f6 f6 04 0d 13 1a 2b 32 3d 36 2c 2c 17 18 0a 05 ff ee fe 2e 2d 14 01 ef f6 ec dd ec f8 f8 0c 18 11 2c 3d 40 45 33 25 1a 0f 10 0e fc ec fa 0d 35 26 f0 05 f5 f4 e4 d7 e6 ea 04 fd 09 13 2c 3c 48 3c 1b 0a 14 05 06 0b fb ef 0c 2a 37 29 18 ed f2 fe e4 e2 da ee f5 fa 0c 14 1c 37 33 2f 1b 13 0a 01 fc f6 f3 f8 07 21 1f 17 01 00 eb f7 df da d7 e0 ed f3 02 19 18 2b 26 26 16 11 08 08 fb f7 01 06 1b 1c 0a 0e 04 ed fd 02 ef de d9 e4 eb 01 05 06 1c 28 2d 27 17 17 0e 0c 06 f0 fd 0b 1e 25 01 f9 04 f6 03 f1 ef 08 ea f1 f2 f8 fa f9 10 19 10 06 0f 06 05 fc 00 fe 0a 0e 03 1a 06 f9 fe 06 06 ee dc f9 f2 ea f0 ef f1 ee ec f5 fa fd 07 fa f8 ff 06 19 17 15 0c f9 0d f5 00 08 03 03 dd ea ec e2 f1 f3 0d 09 08 07 05 05 10 12 fb 1b 12 08 07 fb f1 04 15 ff 05 04 06 f6 03 07 ef e9 ec ea fa 0d 10 07 16 27 1f 1a 1d 0c f0 e2 e0 e4 ea f3 f9 09 f8 f9 fb fc f1 e1 eb ec 03 0b 07 08 06 f6 04 02 07 fe 0e 01 fb e5 f0 12 06 f0 06 00 04 fc 01 fe f7 06 06 04 fe 09 0b 11 07 0a 33 1a 15 2e 27 1c 17 0d 0c 0e 1b 03 fa 08 fe
fa 02 07 f9 03 09 03 ff ff fa 03 fc 03 01 0c 02 f8 05 07 01 fb fe 05 fc fb 07 f7 08 08 01 f9 f9 f3 f8 e2 e1 db dc e0 d9 d0 e0 fc e4 f1 e5 dd e9 e2 e1 f3 f7 04 f7 09 03 08 08 f9 f1 ee ec df cd c8 e0 df e1 d3 e5 e5 f3 f5 f6 e9 e2 e7 d9 e8 e8 f4 fa fc fb fe fe fd eb e8 fa e1 ee ef f5 fc 04 f6 f3 f7 f6 01 fb eb f5 f9 fc fd f4 00 10 11 04 08 05 00 e5 f0 f8 05 0a 0f ff fc f7 05 04 f4 ec f5 02 f8 f7 f5 f6 f0 02 19 f9 f9 f5 07 03 f2 0b 0a 09 07 05 ff f7 d6 dc db e4 e9 ee ef eb ed e8 e7 eb ef 03 fb f2 ee eb 05 f8 f3 f3 f2 f5 d9 cf c8 d1 c4 cd de f4 f4 0b 03 0b 03 fe f5 e6 e6 e2 eb ea 09 fa 01 f2 f7 f2 d9 cc bd b6 bf ba cc d6 e9 06 17 19 0f 0b fe 02 f5 e7 e7 d8 e5 f7 f9 f2 f9 ec e6 e0 ca cb c3 bd cb d6 d9 eb f3 0a 0f 0e f3 f3 f8 ff ed f7 d7 dc d5 e9 e6 f4 fd e8 dd e3 ce d4 d9 e2 eb f0 fa f9 08 04 fe 03 ef f7 fd ff f8 ea ee d3 d0 d3 e4 f2 fa f9 d6 d2 d2 e3 f5 ee 05 04 08 0a 0f e7 e5 ee ea ff 00 fe 07 f4 e5 d5 d4 e3 d9 ee fe ec d3 dd e1 f6 04 fd 14 02 02 06 03 d9 d8 f1 00 00 fb 0c 0f 04 f2 d4 bf e1 d4 f1 fd e9 d4 d4 f0 ff 12 0c 11 0e 19 13 1e 0d 18 18 12 04 0b 15 10 13 f9 df d2 f7 f6 00 f3 f0 d9 e0 01 03 0b 1f 1c 1a 27 33 37 38 32 27 15 13 14 19 06 0f f3 e0 d3 11 27 0d 08 f5 d9 fa 1e 14 2e 2a 28 21 1c 33 44 3b 24 2f 30 26 15 0d 05 f3 f9 ee f4 1c 48 17 00 fd eb 10 35 32 3a 31 25 29 24 1c 20 1f 19 30 42 35 09 08 f7 ee f0 f6 02 25 3b 10 f9 fa e9 15 29 39 35 33 2f 23 14 2e 22 19 1c 31 3c 2f 1f fb 08 0e 0f 0b 08 36 41 18 01 f9 fd 08 18 2d 36 34 33 24 27 1e 22 1c 20 36 2f 2c 14 07 0b 19 0e 0a 01 24 1a 02 f4 fb f4 fc 15 36 3c 34 1c 13 1a 07 04 0a 2a 26 2c 19 0c 17 10 16 01 0f 1c 1c 10 09 07 f2 e9 0b 19 16 1d 12 04 f2 02 f7 ee fa 05 11 14 fd f5 01 11 06 0c 0a 1f 1f 20 fa ff ee f7 08 1b f7 f5 e5 e9 e1 d9 da cd db e5 dc ee e4 e9 ed f3 f8 f4 fd 20 0b 17 04 f8 ff 05 fb 08 ea c9 ca ca d3 ce d0 d1 c7 c5 c3 d0 db da e3 f0 fb f0 fd 0a fc f3 02 fb 01 05 07 f1 c1 b5 b8 cc c6 d0 ca d2 c5 bd c1 d3 d8 cd dd f8 fc 0e 0f 0c fa e7 09 00 05 f0 0b e4 c5 c5 d4 d7 e1 d9 d0 c8 c6 d1 ca d0 dc e5 ef 05 0c 1d 09 09 f7 fc f7 f8 06 f6 e2 fc f6 fb 02 f7 f3 ed e8 d9 d9 d0 db ee f9 ff 03 24 2a 23 22 08 16 12 f8 08 01 03 fa 04 24 20 1a 09 02 07 f5 f3 01 f9 f3 fc 06 15 1c 39 2c 17 09 00 1c 08 ff ff fe fc 0e 1d 13 29 15 05 06 01 0c 16 07 17 01 03 fb 05 0c 19 0a ff fb 13 f7 04 00 07 05 01 fe 00 f9 f8 fe fd fd ef 00 fa ea f1 04 f5 de f1 e7 02 fb f1 ed f9 05 f8 07
f7 03 fc 00 fa 06 fa f9 f8 07 f9 fb 08 ff fd 0b 01 fa f8 fe fd 09 fa 03 ff 05 fd 08 06 07 01 fd f5 f5 16 1d ff f7 f7 fc 00 f3 01 0a 1e 01 f7 f6 fa 06 13 0c fe f7 08 fb f9 01 f5 03 ff f4 07 01 03 11 01 01 0b fe fe 16 11 02 fd f4 f2 f4 ea 0a 11 07 06 fd 05 07 0b 1e 04 e7 f0 04 06 16 18 02 15 13 0d 0a 03 07 fa f4 e7 01 fa fb 04 07 fb f9 06 01 04 ef de ed f6 02 f5 15 1a 1a 1e 1d 1a 23 1c 1d 14 07 05 f9 ef fa 05 06 16 01 03 04 f6 ec e8 ef eb fb f3 06 14 13 1d 16 14 0c 17 1c 0d 16 18 19 0c 07 19 23 0f fb 05 ed ef e3 ed e6 f2 f5 ff 00 04 0d 0e 09 06 14 09 05 03 13 16 01 09 12 24 3a 1c fc f4 f0 05 d9 e3 f3 ef fd 0b 04 03 12 09 0d 07 0c 06 fc 08 09 0f 06 0d 15 31 3b 06 0b 16 fb fb e5 e9 f5 fb 07 0b 0d 13 1d 23 1e 10 fd 06 fe 01 11 02 07 0d 26 30 38 25 20 fa e9 ef ea eb ff 05 0c 14 18 27 26 20 19 04 f8 fa f7 f6 05 f9 02 0c 1f 3c 49 31 f6 ee d7 e9 ea fe 0e 10 0a 22 28 2c 26 20 0b 18 ff f1 f4 f1 f3 ee f9 03 26 37 3b 38 07 e6 e2 de f0 09 16 19 11 0c 13 02 00 f9 11 20 09 f0 e5 e7 f7 f0 f8 f4 21 32 3d 39 0b ec e1 dc 01 fd 08 f0 f6 ed fb e9 e1 04 2c 21 0a f0 e9 f1 fd f3 fb e8 f3 17 2f 27 fc 10 e8 e5 f7 eb f6 e3 e5 e8 e7 e7 f7 1d 36 30 10 e6 de e9 f9 fb e5 ed e7 f7 17 2c 1c 13 f6 e1 00 e2 d7 e7 da eb e5 f4 0d 2a 34 2c 17 ed db eb e4 e6 e0 e6 e7 02 1e 2a 17 15 fe e8 08 f2 e5 e5 e2 e7 f3 f3 1a 27 32 25 11 f8 e3 ef db de dc d6 ea 16 2d 27 13 ee fa f0 17 fb fb fc e4 e5 fc 09 25 26 35 26 01 fa f0 ed e5 df ed ed 0a 21 37 2d 12 fa f5 f7 0f 09 09 0d 07 08 14 1e 22 25 27 1d 0b ff f7 f0 f0 f7 06 02 16 23 31 25 16 fb ed e4 ef 02 0e 0d 16 14 1b 24 22 29 24 14 06 fc 01 0c 08 0d 04 18 20 2e 3c 0f 0f ff ef fc db f9 07 08 1b 21 27 1c 1e 1b 1f fd 0f 11 13 10 16 22 19 23 27 2a 35 25 15 02 f3 fc ec f6 ff 15 24 1f 17 19 26 17 02 07 11 13 19 21 29 26 27 2f 2e 28 18 1b fe 06 06 fe fd 08 14 16 23 12 15 20 18 12 03 05 07 16 26 2b 22 25 29 29 35 2c 18 07 05 0b fd fe 01 0b 0d 18 14 0f 1d 0f 0b 08 0f 15 0f 0c 12 27 21 1e 29 2b 25 27 19 f2 06 00 03 fc e9 f0 f4 f0 03 0b 18 06 07 0d 16 07 09 1e 1c 1b 23 2e 23 23 29 1a 0a fe f7 06 fb fe e4 d5 c8 d1 da f4 f4 f6 03 06 00 05 0a 0b 10 2a 20 16 15 03 1a 25 0d 0e 03 07 06 0a fb d3 c7 da d5 d0 df e4 ec f7 f1 ff 02 07 13 0b fb f9 ff 04 fd 02 fb 0a 02 02 fa 00 03 f6 e8 ee ef e7 e8 e6 fe 03 f7 ed df e7 ec d0 e0 ed f3 f6 07 02 02 fe f8 fa 04 08 fe ff 01 01 f4 fc f7 fc fe 02 ec f8 f1 df cd d5 d7 f6 eb eb ec f9 07 fa 01
fa 09 fd 02 00 04 03 ff 07 f9 fa fb 02 ff fb 08 08 04 fa fc 04 f8 fa fe fc 00 01 fc fc f8 01 01 fe 02 ea e6 ed ff fe e5 f1 fa f8 ed ec ed ea f4 fc ef f1 fb 06 00 06 09 01 02 06 fe fc fc ec f4 eb f4 d7 cd cc c9 cf c9 e3 e2 f4 f9 ff f4 e8 e5 ff 0c 03 07 f7 07 f9 f7 f9 05 f6 f5 e6 e0 d4 ce c8 c1 c2 d4 cd d6 e2 f6 0b 16 19 0e 20 1b 0c 04 06 07 fc 02 e6 e9 ec f4 e4 e6 e5 f9 f1 eb ee f2 e5 e6 e3 ef e7 f2 f5 f2 1a 3a 12 0a 04 02 e7 e2 df e6 e7 f4 f3 f0 ed 15 17 0a f7 e8 e8 e6 e6 e2 e5 dd e2 e7 f8 31 23 0f 07 f0 04 f8 d2 e1 e3 e6 fe 0c 1d 26 1f 1e 2c 30 1f 19 0f 0d 03 f4 ed f4 10 31 0c 04 06 e8 f9 f7 d2 dc f5 f7 21 22 26 25 28 37 31 42 3b 29 26 1a 0b 12 f6 05 24 2c 0f ff f2 0b 01 ee d4 ea 19 18 20 21 21 1e 20 1a 2a 23 2f 1c 15 14 0f 1c 19 25 3a 3a 2c 20 07 10 f9 f7 f0 13 1e 23 2a 2c 22 25 23 1b 14 01 04 fe 0d 12 18 26 23 35 4c 60 51 0c fb 0a 01 f9 11 22 3a 2b 28 28 2d 28 1f 13 03 f6 ee ef 07 19 15 25 28 33 3a 50 46 08 01 06 18 02 23 3c 43 3f 3a 2d 1f 1c 12 22 11 06 01 05 0f 0c 1d 16 14 19 24 4a 38 12 fa 12 16 25 3d 40 34 2e 1f 12 12 0a 08 11 11 02 11 0c 18 17 20 10 0e fa e9 0d 2d 09 f6 04 18 2c 35 26 13 0a 09 fb fb f3 06 15 10 0f 08 12 10 14 23 0b f7 db c3 f3 01 11 04 fc 13 0e 17 fa f3 e7 ea ec e4 ef ff 0b ff 0e 0d 1c 06 09 09 03 e0 d1 ca e0 0e 0c 00 10 e9 05 fb e3 e5 dc e8 ea e8 eb 05 fd f2 ff 0a 0f 0b f7 f4 fb eb dd df e6 ed ff 0a f3 e5 04 01 d5 d7 e2 f5 ee f5 f2 0a 00 ee 01 08 06 fc e9 ea f0 ea eb e9 d4 f3 f0 00 f5 e9 01 ed dc f5 f4 f9 fa e8 fe 11 fd ec 0b 07 01 fa ef f7 f9 f8 fb 08 c7 fc 06 15 f8 00 f5 ed fa 05 f9 f7 02 fd 04 f1 ec ef 02 00 f4 f8 ff fd f9 fd 03 00 d8 fa fe fc 01 fe e0 f2 06 16 00 00 ff f6 e9 f0 e6 ec f4 f4 fa fc 0d 08 f6 05 14 0e f6 e9 f9 00 f0 f5 e7 ec 15 13 0e 0a e8 ec df e8 ee f0 f1 e6 ec f3 01 05 02 18 22 13 01 e2 fc fb f9 df db ed fc 0f 13 04 f2 e3 de ec f3 eb e8 ee ee e3 e8 00 0a 17 1a 12 fc ee ff f5 fc e4 e6 f2 db 00 06 07 fe fa 06 10 0f 0b f3 ee ec ec f5 01 10 1a 22 1a 0a f6 f7 fc 04 f0 f2 f9 eb ec 00 10 09 17 11 0e 18 16 08 07 fa f0 06 0d 1a 1e 36 24 03 f6 01 ff 01 f6 ff fc f7 f7 1f 20 1b 16 16 18 1a 17 22 28 1a 1e 2e 2d 2c 2b 2d 04 da e9 fb f8 00 04 09 0e 27 24 32 28 34 37 35 32 39 3c 3f 4f 41 44 53 45 4c 2e 1c 1b fa f8 fe 00 00 fb 02 0f 0f 1d 3b 47 4b 40 40 4a 4a 62 50 48 4f 40 34 3a 33 1e 10 0d fc fc 03 f8 05 fe fc 06 01 08 1b 1b 19 23 20 1a 1b 37 23 1c 17 25 1c 09 16 1c 0b 08 09 04 09
fa 06 00 03 09 08 09 fd fb fd 06 f9 02 06 05 01 08 08 fd fb fa 06 fa f7 02 08 07 06 04 f9 09 09 0c 01 ee fb 0b 0e 18 17 25 1b f4 eb f1 0b 24 16 12 16 f8 02 f8 f7 fa fd fc 07 06 15 09 0f 14 1b 13 05 12 0e fd f6 fd e8 f3 fc 07 0d 12 18 18 0a 11 fb 02 fb fc 04 fc 0b 01 ff fc f7 f8 00 08 fe fc ec f4 eb f2 fa 13 1a 14 1e 1a 05 05 07 14 07 02 fe ee 05 14 f9 ea f1 f7 e9 dd e6 d3 d1 da d4 db f4 03 fd 08 13 23 25 24 06 f1 00 f7 fe eb f1 fb f8 03 fa 0e fd f6 eb eb e7 ee ee eb ed f4 fd f6 fc 0a 16 0d 0d 04 fa 01 f0 11 0d 0d 06 11 08 09 00 02 fb 05 00 fb f8 0b 08 00 05 01 03 0d 03 fc f6 fe 0c 0b 08 12 17 f5 03 fd fe fc 0f 08 11 17 08 08 11 1c 20 1e 0a 03 09 0d 01 04 f8 02 03 ff 13 16 12 f9 fa f5 03 0d 06 09 10 0e 08 0d 0f 1c 11 16 0e 07 10 0d 07 fd 08 ed ec 08 11 15 08 f4 fb fa f9 06 0c 00 09 07 0a 11 09 10 18 1c 14 15 0d ff 00 fe fe f1 04 ff 12 24 12 fe fd f2 0b 0b 02 01 01 05 1a 09 11 15 13 1e 0d 1a 18 0e fa 0c 0c f3 fd 00 1c 2a 18 f8 f9 01 13 18 0b 18 12 1a 08 ee fe 15 23 1a 10 16 16 15 fd eb ea e8 f2 08 14 3b 16 0c 15 22 28 23 1a 1d 28 10 e6 e0 ec 03 18 17 11 16 0d 0c 0e e7 de f1 fc ee 0d 2b 14 26 29 2b 25 13 1e 29 15 eb d4 e8 e7 ff 17 0f 19 1e 21 1a 1d 05 ea db e6 00 12 19 19 32 39 26 30 20 19 1f 02 e9 d7 e1 f0 09 1b 1f 1f 2e 28 34 25 20 ee d0 f9 06 12 11 fb 20 23 31 24 26 15 1d 13 de d2 e2 f0 10 28 22 2b 3b 2b 38 28 05 e5 e0 f3 fe 01 ff e4 09 21 2c 30 2b 18 0c 01 ee dd ef 07 18 2c 32 29 2a 2a 16 0a f8 d3 d2 e9 f9 10 fa e5 01 14 1b 11 0f 0b 0c 09 f9 f6 0d 23 18 1d 2c 1e 13 11 0e f3 ed ec e1 ed 0e 01 0e e6 f7 06 08 ff 04 fc 01 04 ff 01 16 25 17 1b 14 07 09 fc e7 e5 d8 da 04 e9 fc 0e 17 03 00 01 fb f7 fb ee 03 05 10 1c 1c 11 03 07 f7 f3 f5 e0 d2 cd e5 d7 e7 f2 06 11 0d f5 fb fc e6 e6 f1 f4 00 14 15 20 19 0b 02 f3 ed e2 dd d7 ce d9 e6 ee fd 08 ec f3 ee e7 ef e6 df de ef f7 fe 13 1c 0e 0e 0d fe f3 da dd da d7 e0 d9 ee ea 00 01 f2 ed e3 e1 db de e5 e7 f4 08 09 11 15 03 09 00 02 f5 e2 d7 e4 e4 e9 ea f9 fc 11 fd 07 08 f9 02 ff 0b 0c 00 fd f7 04 01 f8 03 02 f6 f1 f8 e6 e6 e0 ee ee ec f9 01 01 fb 05 06 f9 1b 2f 38 20 22 08 fa 0c fe fb ff f8 01 f9 ff f5 e2 fa f6 fe f7 e8 ea f3 07 02 fc fc 0d 28 37 1b 1e 1c 0a 0a 09 03 11 05 0c 06 fb 06 09 04 0d 15 0e 0a 08 ff f8 ff f8 03 01 05 11 14 0b 1a 1d 22 1c 1a 27 1e 1c 1b 19 21 1f 12 11 10 05 05 01 ff ff 09 f7 fe 07 0c 05 01 0e 04 16 13 09 0b 29 14 14 1c 29 1a 15 0d 17 0c 1d fa 06 fa 05
00 fc 03 f7 01 02 01 fa 01 f8 fc fd 08 0b 01 f9 07 06 ff 02 fa 02 f9 fc 09 02 04 01 02 06 00 01 05 ff 1a 25 22 1b 11 1d 1c 1d 06 24 23 11 0f 10 1f 0e 0b 19 f7 fb 08 09 f8 07 03 07 06 0f 25 27 28 2f 46 36 3f 2e 34 39 2a 28 25 1a 23 15 21 20 1f 01 fa fd f8 07 00 17 09 17 22 28 2d 37 3b 42 3f 3e 39 24 23 1b 1b 24 16 09 01 0b 18 04 08 fe fb fe 01 1b 0f 31 28 1e 32 26 26 1e 19 24 18 15 13 0d 18 13 04 fb f5 e9 dc f4 15 08 f8 03 07 16 1e 28 16 16 15 13 0e 06 fb fa 0a 16 0b 0a 0b 09 01 f2 f0 f0 f2 f7 02 0a fb 0e 01 13 17 0f 13 0a 01 01 06 04 fe 0b 07 0c 14 01 f8 f5 f4 f0 e9 ee f6 02 fb f9 f9 13 f3 0c 30 1d 0b 03 02 ff fb f5 05 05 13 15 fa f5 e3 e6 e8 e8 f6 d7 de ed fc 04 f2 ff 01 12 35 16 0f 01 fc fa fb 02 07 0a 22 17 fd ef e4 f0 e9 f1 f3 d0 b6 c4 f1 03 fc ec 07 15 2a 11 0a 12 f1 ee e9 f1 ed 07 27 23 0a f7 ed ea fd 01 02 df be d5 e8 ed f8 f2 f8 1a 14 0f 0c fe ef d9 da e2 ea 14 2c 28 0d 02 f6 ee fc f8 e9 ef da d2 dd ef 00 fb 01 18 17 fe e1 e0 d5 e7 eb e3 fb 18 21 12 0c 05 ff 0d fc f8 ed fa 01 f8 df f5 fd f1 f0 00 ed e8 cd de df f5 e5 fe 0e 23 36 1e 14 13 0b f2 fc ec f3 fb 13 0a 02 0c 0a eb fe 02 d8 df d7 db e1 e5 f6 00 10 29 36 25 22 0e 0b 03 e7 ec e2 02 19 12 10 19 f0 0a fe 07 d5 c8 e1 e7 e1 f1 f8 ff 24 2a 35 30 1d 0a 01 fe fa f5 01 02 10 1c 1d 0d f7 11 0d 14 eb f3 f6 f1 e6 e8 fb 16 1f 46 51 32 22 ff 01 02 06 0c 0b 08 1d 23 0c 1b f9 19 22 24 0a 00 f9 e9 dc e4 f4 18 1e 40 3e 0f 06 00 13 16 0c 1a 13 10 24 33 18 05 04 17 1e 3a 19 07 f7 ff e8 e4 f1 00 0f 15 03 07 0f 0f 0f 10 04 0e 21 1c 13 23 21 fc fb 13 17 31 16 16 08 06 f3 ef e9 fa 0a 11 0a 0e 28 2d 24 0a 07 18 20 13 0e 2b 10 1b 03 f1 06 27 18 17 14 15 11 ff f5 fc 04 0c 17 27 2e 22 19 11 0c 13 1f 0f f5 2c 15 0f 08 f5 05 23 23 0b 24 2a 19 19 10 08 0a 16 27 2a 22 21 16 21 22 12 07 01 fd 09 0b 07 06 00 18 1b 18 02 15 1f 23 14 0d 0e 0d 18 15 11 11 16 22 18 0a f7 f3 f6 05 02 f8 f7 14 07 11 21 10 14 12 0c 0d 11 09 06 0b 03 0c 01 0e 09 1b 11 13 f7 ed ec fc f7 ef 06 07 00 13 28 26 0f 06 04 05 f9 02 fd ff f9 fe 01 ff 02 12 0d 04 fa f0 f7 05 f7 00 02 04 fb 00 1d 1c 0b 16 09 07 0f 0d 00 0a 08 01 f9 ff 0e 08 03 03 00 f9 05 1c 17 11 05 09 fa 0c f7 f8 04 17 15 29 19 1a 19 21 1d 0f 0a 06 05 08 1a 15 0a 02 eb fc 0d 0b f8 ff ff fd fa fe e8 f6 09 02 00 fb fa 06 01 09 f6 10 15 0b 16 20 0c 00 04 00 f6 07 fe 06 fc fc 05 04 fd 04 0f 05 01 f5 06 ff ed 08 00 f6 ee ea fd 02 04 f8 ff 02 02 02 01
00 ff 04 fc f9 03 08 06 fe 04 f8 05 07 01 00 fb 08 05 01 05 fa 04 f8 04 06 07 ff 02 f9 05 08 08 03 10 1c 17 1a 07 1c 13 13 16 fe f6 f5 ff 0e 0f 0b 15 07 0b fc fa fc 06 08 fd fe f7 fd 15 16 17 25 0d 26 2f 1e 20 18 13 17 14 19 16 17 13 22 1a f7 ff ff 08 09 02 fb 02 00 1f 1b 22 12 1d 25 26 12 09 13 06 03 10 1c 1e 1c 1a 19 1a 06 02 02 fc fb 01 f8 04 1a 29 1a 1a 1c 0e 10 0c 06 10 0c fa 11 13 0b 16 1e 19 20 16 09 0a f5 06 fc 03 0a 07 2d 18 1c 18 16 15 0f 04 06 03 03 0d 0a 08 12 10 11 1a 0b 24 23 0a fc 0f fb 13 f8 fb 1c 01 06 f9 08 14 08 ff ff 0c 0c 0b 0a 02 ff f7 f6 f2 ff 16 22 0f fe 0d fe 00 e8 ec 11 03 f3 f2 06 f6 f7 f3 f4 01 00 03 fb ed de e7 ec f0 f1 e2 02 fa 0d 04 f3 eb ed e9 03 f8 f5 ea ee fb f9 f3 e7 f8 f7 ee ea e3 de df ee f4 dc d0 c7 f4 e6 ee f8 f1 f3 e4 f7 fd fd f8 01 f8 ec e8 ec ed e7 e3 e2 ca d3 de e3 ea e5 cd b7 be c3 e2 fb f0 d3 df f3 ee 01 0c 00 f6 f9 f4 ea e3 d7 cf d9 e2 dc e4 f0 ec db d5 cb bb cf e1 f5 e5 cf e9 eb f8 fe 07 04 0f 0e 07 0c f8 e4 f6 0f 07 07 fd ed e4 ec e2 e6 d9 d7 f3 03 df d5 d1 ec 04 10 11 20 1a 22 1c 20 1d 0b 1b 23 1a 13 07 0c 07 fb 02 0b ee cc f4 f4 f1 df e9 f6 18 20 11 1b 16 1e 1e 26 2c 17 20 34 28 13 11 0e 0f 0b 08 05 f1 ce e9 f6 f9 db f7 0b 19 1e 20 20 16 19 1e 1b 18 27 25 35 1d 15 08 08 06 0c 08 f3 f1 da f6 f1 07 f6 08 fd 15 1a 0f 19 0c 0c 13 24 18 2d 38 39 22 05 04 09 fc 09 fb ef f9 e5 f4 fd 12 04 02 f4 00 13 18 14 00 09 10 1d 1c 31 26 1d 18 0c 0c 07 0b 07 fc 04 02 d2 f4 f7 08 07 07 f3 f3 fa 04 0c f9 fc 0a 05 0e 23 1b 1a 16 1d 15 10 0f 04 0b f4 e4 db e1 fb 03 05 0f f7 fa ff fd 00 f0 f4 f5 0d 0b 12 13 2a 21 15 0e 12 0f 02 fc f5 ea f1 f7 04 ea fa 24 02 ff 01 01 f7 e7 f1 08 03 fb 09 18 2e 26 21 17 10 1a 04 fa e3 e5 f1 fe 08 ed 0a 24 ff f8 f4 05 f1 ee f4 f4 00 02 17 21 24 1e 27 17 1c 08 f8 f0 ea f2 fd f5 f9 00 15 11 03 f2 ef f2 09 04 fe 03 05 10 1a 21 25 2e 30 2d 16 01 00 f1 ed e7 ea f9 fc 06 06 1c 0f e4 e3 df e9 f2 00 fa 00 ff 00 0a 0e 17 28 27 1b 1a 06 f1 e3 ec fb f9 f8 09 10 2b 18 07 f4 ed f2 f4 f0 f3 ec f7 f5 f4 08 12 2b 2f 37 30 0a 11 f7 fd 09 05 fd f9 0a 15 13 10 0a 10 0e 06 0a 07 ef ea ed f4 05 11 10 17 24 2c 29 26 03 14 05 fa 06 02 06 fb ff 0b 0e 04 07 0a 0e fc 01 f5 fe ec f8 f4 f3 02 22 1b 08 0d ed fc f4 f7 ff ff fe 0f 0e fa 08 07 fe fe ee f0 f7 f2 ed e4 dc dd e1 d8 07 fd e5 fc f0 02 05 05 ff 05 06 02 03 fe f7 eb e7 f9 e3 f2 f5 e5 eb ef e9 e5 e1 dd 02 f9 f7 ec 00 f9 08 04
06 f9 01 05 04 01 f9 07 f9 00 05 f7 ff f5 00 fb fa fa 00 fa f7 fa 04 03 04 ff f9 02 00 ff 03 01 0c f4 e1 e7 f0 dc f3 e1 cb e5 fe d8 dd e4 dc cc dd eb ed f7 fd 06 f8 04 f9 fc f5 f3 fb e9 e0 dc cc bc c3 b0 c0 c5 cc db e8 f8 fb f7 e9 f6 f8 e0 dc e1 04 fb fd 08 f5 f6 04 fe fb fc e8 df ed f1 05 ee 05 07 fb 12 12 17 22 1f 17 02 fd 00 09 01 08 04 06 0d 04 03 fe 01 f5 ef f4 11 07 fd 00 12 16 10 16 08 05 11 16 1a 2c 16 09 f2 02 09 e9 05 e8 0b fb fb fa 0a 03 04 00 f6 fe f7 fd 07 01 01 06 03 16 16 20 23 23 06 fb 14 17 ff ec 04 00 0a 12 09 07 09 fc ff fb ed f4 07 03 11 11 0e 1a 1f 2c 2f 2b 06 09 15 04 0b eb ff 04 0b 10 14 14 04 0a ec ef eb f4 ff 00 0b 0e 13 17 26 33 4b 1d 10 f0 12 10 0e e8 fb ff 05 05 18 09 16 02 fc df de f3 f8 00 06 1e 22 1f 2d 45 4e 2a 0c 00 25 17 08 e8 f2 f1 03 0d 13 12 12 0b f6 ef ed f7 fb ff 0e 0a 1b 2b 33 5e 63 38 12 12 18 2b 14 05 ee f2 05 13 1e 1b 25 1d 18 fd 03 10 00 fc 00 fd 06 0d 1f 5b 6e 3e 07 12 11 3d 1d 15 f7 04 08 21 20 28 2e 3a 33 2e 22 23 0a f5 e3 cf c9 c9 d9 0e 4b 36 02 0a 22 37 1d 13 00 0c 1d 20 0c 2a 2c 39 35 25 1f 27 1a f5 e4 cd ac 9d 91 aa 03 10 f1 f7 23 25 19 1c 10 0f 0e 10 11 21 21 22 21 0a 0d 0a 11 03 fa eb cf bc b1 a9 d4 e4 e6 12 16 31 07 18 06 fc f7 05 0f 14 0f 16 fd 00 fd 0f 09 15 08 fd 01 f5 e9 d2 cb d0 f3 0e 0f 1d 13 fb e0 ea e2 e7 f7 fd 06 0a fb eb 03 07 16 1f 20 0c 10 0d fa e8 cb ea f3 01 08 11 00 fa f0 e6 e4 ee e1 e0 da f8 fd ef 08 fd 15 20 1e 10 06 06 01 e5 bb db e1 f9 0c 09 11 0a 12 0b fd f0 de c2 d1 e8 fc fb 02 1a 1d 0e 18 1a 02 ff ff eb ae e1 e2 04 03 17 29 1d 18 22 13 f4 e1 d2 df e8 fb 01 19 0d 11 0e 1d 13 fe 02 f2 e4 c1 f8 fd f9 0a 20 34 1a 25 26 15 0a f3 e0 e0 f4 fd 07 04 0a 08 0e 0a 0c 03 f4 fa ed ca e3 ee 03 06 06 17 11 14 16 08 0b 00 ec f6 f7 ff f3 fb 0b 09 0a 09 fd fb f5 f4 e9 d8 f2 f9 fc 04 f7 fe 0e 00 01 01 05 fa f0 fa fc fc 0b 05 12 07 07 03 fa 02 f6 f5 d5 d7 f0 f7 fa fb 04 fe 00 e2 e1 de e7 e8 f5 fe 02 12 13 11 0f 04 fe 05 03 01 fe f5 dd e4 f5 04 04 f9 13 24 09 fe e3 dc e6 e9 07 03 06 0a 13 1d 0f 06 04 fc 00 e3 db e1 d8 dc f6 fd f9 04 0c 33 2a 15 06 0b 09 1a 1d 24 22 29 2e 26 1c 15 0b 07 00 eb ea f9 f8 e5 ef fc fe 00 06 12 1b 10 1a 22 2d 40 44 4d 42 49 31 38 31 1c 0c 0d f5 ff 1d 1e 19 fe fc fd 05 fd f8 fa f3 f7 f9 f1 02 fe 02 1b 08 11 f9 0e 0b 00 f5 01 f6 0c 0c 00 ee 00 ff ff 01 07 ff 08 08 02 00 03 09 0a 1b 1b 1a 2e 09 04 17 2c 06 0e fc 05 0d 1a 05 06 05 f8
02 03 f9 fa 01 f9 09 fe f8 f8 08 04 fc 07 04 01 fc fb 08 f8 fa fa 06 00 06 fd 06 05 01 fa 06 03 0f 00 1b 24 1b 19 16 30 2b 30 0f 23 16 22 1d 19 20 09 04 05 01 f8 04 08 02 00 03 11 08 11 1e 22 24 0b 28 22 39 34 32 39 2f 2c 2e 32 1b 22 1c 21 fc 0b fb fa fc 09 01 13 18 f0 0c 13 12 07 0a 12 0f 29 25 29 29 24 23 27 1b 0e 0f 10 0c 01 03 f9 fb ff 03 fa ff e9 ec e6 eb f6 01 0b fb 11 0f 1d 10 18 0a 13 00 10 0b 0d e2 f5 f2 fc fe 06 0c ea e8 d5 dd ee f5 ef fd fb f8 00 15 19 0c 13 12 0c 03 06 10 05 01 01 13 07 fc 05 0e fd f3 ed f1 ec fb ea f7 02 f9 f8 fc 00 fe ee f4 fb f9 03 06 00 0c 0b 03 fa 0c 02 19 0e f7 fc f5 f8 f8 fb 0b 00 04 fb fd f0 e8 f6 f6 ee f4 f7 f2 f9 09 0c ff 07 09 1a 23 32 01 ff f9 fa f9 f9 0f 1c 19 19 17 15 ef ed db da e8 de e3 fd fb 0b f9 f4 14 1c 25 28 25 f9 fc 0c 0e 16 19 30 3e 42 30 0e ea de da db e3 f5 e9 f6 18 1a 0b 12 09 12 34 28 25 02 fc 13 16 21 3a 36 45 4b 28 00 e4 d4 e3 ec f8 ff fe 07 17 1e 20 f5 12 26 48 2f 10 f8 0f 20 21 20 34 35 31 24 0d eb d2 d6 f6 f8 e8 f8 f9 14 0d f9 f9 f7 06 24 3d 30 07 06 24 31 2d 21 37 2a 0b f4 f8 e0 d8 ea ff e6 e4 f8 03 19 11 ec e9 09 03 0c 31 1b 01 13 32 27 25 2f 32 fa d7 d8 eb e6 d3 e2 f3 e8 f4 ff 16 2c 30 f3 da ea 05 0f 25 10 e8 16 2d 30 2b 29 19 d5 c9 c7 f5 e0 d8 da f1 f7 0c 15 28 46 42 f3 d5 f4 0d 0e 23 05 e7 0e 1d 1c 1a 1b fd e5 c3 d9 f4 e7 da da f6 0f 18 25 2d 35 28 01 d0 e3 02 0c 02 fa f2 05 02 08 06 ff f2 d4 b7 d2 ff e7 dd e3 f4 19 17 16 15 1d 12 e8 cd e7 f9 05 f5 fd f2 f7 ef ea e9 e6 f1 c3 ba e2 0f ed da e7 15 0c 13 10 1f 11 12 e8 e2 08 06 03 14 fa ef e3 d9 e1 df ea de c8 d8 02 1a 08 fa 0e 12 10 14 0d 01 01 ff 01 ee f7 0b 14 17 f2 f0 d5 d6 d9 e9 f4 e9 fb 00 24 23 26 1a 20 22 0d 0e 05 00 fc 02 f1 e5 fe f9 0f 00 ee ee d4 da dc f5 f6 0a 10 1f 26 35 30 27 2c 1e 13 0a fe f0 f0 f8 ef f9 08 06 fe f1 f3 fd ee ed ef fb f6 16 1e 21 28 2f 2e 2b 1f 1e 08 13 0c f3 ea e4 fc 05 00 07 08 e1 f0 fd fc ef f0 f9 ff 06 13 17 1d 23 3b 2b 1f 1a 0c 00 fa dd d4 db fe 17 06 02 fb f8 f0 f6 fe f3 fd ff 11 07 0d 16 1c 23 2f 1b 18 07 fa ee df cb cf e2 f9 11 08 fb 01 02 09 01 00 fe ea f1 03 fb f4 f6 02 07 04 fc 0c f4 e3 d4 d8 d5 d3 ee 01 05 fd 07 f8 eb 02 13 ee eb ef 02 fc f3 fa f4 eb e6 ec f6 f3 f1 fa e6 ea 04 fc 02 07 fa 03 07 f9 f9 02 f5 ee f8 fc 19 0e 05 13 07 10 02 0f 13 06 08 19 05 08 24 08 fd 02 03 fc 04 05 fe fb 03 13 13 15 21 11 18 14 19 3f 20 22 24 3d 1f 1a 09 16 0e 10 fe f9 ff 04
fa 02 03 08 05 02 f9 00 f9 07 02 fc fa f7 06 fb 05 05 fc fd fa f7 ff 06 04 fe f9 01 07 fb 04 03 02 fa e1 e0 e7 e0 e5 f9 e8 de eb dc e6 dc f2 ee f0 fe f6 f1 01 04 06 06 02 fe 05 fe f2 f5 e3 d5 db fa f0 f0 d7 cf cc cd e9 ee fb ff f8 fb fb fa fc fe 05 03 f7 06 09 f6 f3 06 0c 04 ff 01 01 08 07 f6 f2 fd fe fc fd 01 06 0d f7 f7 fd ea f7 06 fb 0a 0c 12 10 12 13 1f 18 08 12 17 0f 04 f5 fb f2 fa 09 05 f8 fe f3 f4 03 11 1f 02 ff 00 f9 17 18 21 1b 1c 13 10 15 23 1c 1a 00 fc f8 f5 f8 f4 f3 e5 f0 ea 0d 16 14 fc fc 10 12 2f 16 28 1f 19 12 27 2e 2e 20 28 2d 25 1e 12 0f 00 fe f9 e5 d5 f4 05 ff 17 06 0e 12 20 15 20 1a 13 18 1f 1d 30 31 31 3f 39 37 28 26 12 0b f8 dd d1 cd f9 05 0b f0 26 14 14 23 1c 21 1c 1e 23 20 27 2f 38 3e 3e 2c 17 1a 0a 0b f9 e9 c5 be e1 ff 02 0a 10 21 21 29 16 1f 16 1a 10 11 1e 1b 2e 3a 31 22 14 08 02 fc ed ef c3 c4 eb e6 00 fd 17 34 3d 21 24 25 08 02 f7 fb ff fa 10 20 1b 19 0a fd 06 fc ed db c8 bd fe 03 08 03 10 30 39 1e 11 05 ff f9 f2 f7 fb f5 f7 0b 0b 0e 17 10 0b 0a e6 dd c5 c2 07 10 f8 06 1c 2c 2f 25 13 f8 fe f0 f1 f6 e7 e7 e8 00 08 1a 1d 24 19 09 e2 db c0 ba f6 fa 04 fd 0d 21 2e 23 00 ef f1 ff f1 ee e7 e2 ee f2 00 0a 18 20 1e 09 f6 e4 ca d5 f0 14 14 00 15 1b 18 18 f6 ee f9 fa f1 e8 cd dc dd f1 fc 0d 19 1b 16 1b 13 f4 f1 03 16 25 f6 03 09 12 1b 1f f3 f2 e1 e2 dc e7 da e9 e5 ea f7 07 14 20 25 2f 1f 23 16 18 1d 2b 23 04 12 1c 1b 27 fb e3 dc d7 d6 d6 dd f2 ea da e9 f8 13 27 2d 25 25 25 27 1b 1d 34 18 fc 0d 0d 26 22 05 ee cf d4 d1 d3 d4 e1 dd d3 fd 04 17 21 27 22 1d 1a 1e 09 19 41 25 0a 08 1a 39 1d 0c eb ce dd d3 d6 d6 bb c8 e2 f9 0a 17 15 1d 16 24 1a fb f8 0c 10 14 fa 0e 0d 31 29 21 f6 e2 dd ce d2 cf c1 df f4 05 03 09 0f 11 06 07 f7 fa f7 14 17 08 04 00 0b 33 19 1b 0b f6 f3 e3 d7 e5 e6 fe 09 fc 10 09 fd 03 0d fc f2 ee fb 19 0c 0a f1 04 0a 16 0e 0e 16 06 08 fa fb fc f7 02 09 02 13 f9 03 fd fb f4 ed ee 07 03 fa ff f9 01 06 1a 10 10 0f 12 10 0f 19 0d 15 09 0f 10 07 0b ff f7 03 e6 f0 00 14 fd f8 0a 01 04 0a 23 1f 21 2a 2b 1b 14 16 19 0c 05 10 06 06 06 03 fa ed f3 f7 fc 1d fe 05 fe f8 f9 0b 2d 3d 45 3a 36 18 0d 24 14 20 1b 1d 10 12 1d ff fc 0f 0b 13 13 0a ed f9 f9 fa fa fc 10 37 3f 41 44 41 40 44 47 40 35 37 2a 28 2f 32 2e 22 2f 28 13 24 10 fa fe f7 f7 04 fb 06 0d 15 24 37 3e 39 36 34 4b 4a 48 4f 55 58 48 3d 2d 1d 05 06 fe fc 04 09 02 fb 08 04 06 12 1c 1d 0f 1d 1e 1d 2a 31 1e 2a 29 27 1f 07 15 0c 17 02 06 ff 02
f9 04 01 f7 f8 02 fe fa 04 05 00 04 02 04 fa 07 fc 04 00 00 f9 f7 fd fc fd f7 02 02 01 04 03 05 04 f5 f5 f1 e3 e7 e8 dd dd e1 ef f2 ea ec f0 ed ea f6 f7 ee ff 02 00 fb 07 f7 00 fc fe f8 f5 e4 e6 d8 cb c6 cb d1 d9 ea e0 f4 eb f3 e7 de db e0 f4 fc fc 03 fb 07 0a f8 f4 de e9 e8 d7 c6 c0 c7 c8 cc c8 db dc f0 e7 f6 f3 e8 e7 e6 ec fc f4 08 f9 f8 05 fc e7 e8 ef ee e6 de e5 fa 0b 0b 0e 0a 02 fe fb fc 07 07 f7 fb ff 03 04 f2 fa f8 03 f6 f1 03 fb f5 f6 01 fb 0c 12 03 1c 1b 1b 15 09 08 10 18 18 17 19 01 fe fc fc f6 ed ec 02 0d 0e 03 10 0f 01 00 f9 f4 ed ef f2 f3 fa 10 0d 19 23 3b 21 1d 16 f6 0a f0 e4 ee f7 06 f9 0c 04 fa 01 ef df ec db d9 e4 f6 02 0c 0d 11 26 44 23 26 19 f6 f9 f0 fd fb 00 0c 0a 06 ff 04 f1 fe fe f9 e0 e2 e8 fd 0e 22 0c 09 13 2d 37 3f 23 14 02 e8 f6 ea f6 02 ef f6 ff 04 f8 08 0e 05 e4 ed fa 14 13 14 03 0d 16 17 1a 38 25 ef 06 f6 de e2 f7 f5 ed fa 05 1a 0d 19 16 00 01 0c 15 10 0e 0a f5 f8 f7 ea ff 1b 21 10 f6 ef e2 df fd 05 f5 05 17 21 20 19 1c 0b 16 2b 1c 0f 03 00 dd e1 e9 df f8 02 22 0c 0c f5 e8 f2 f0 ff 03 0d 11 1c 18 25 1f 18 1b 24 18 11 00 f9 fa f9 f0 e2 ff 0b 0d f5 0e f2 e9 f0 f9 f5 fe 12 0a 15 1d 1c 16 1d 24 26 1f 0f 05 fe 06 f7 e8 e6 ea 00 01 fc 04 fb f7 fd fe 08 01 07 08 0c 00 fa 17 1b 1e 2b 1c 1d fc f9 f5 e7 e6 e1 ed f7 f1 f5 10 f9 13 03 02 f5 ff 07 0b 07 f7 f5 08 1a 2d 29 17 10 ee e4 e1 e4 01 fb ea f7 ff 07 01 fb ec ec ee ed ee fa fe ee df ed 05 20 31 25 25 fa df e5 ea f0 04 06 ee e7 f9 00 04 fe fb f1 f0 f1 f7 f9 fa eb de e6 0d 25 2b 22 0c ef ea df e5 f1 fe 07 fc ea f4 fc f2 fb fc f0 f4 f4 e0 f0 f0 f4 e8 ed 08 1e 1f 0e f4 ed e6 e6 fb f0 f0 fd 0d df fc 02 0b f2 ee ea e7 f0 eb e1 e6 e4 e4 eb e3 06 fb 00 fd ef f0 f7 f0 ee ed f4 04 03 04 fe f8 ee ef dc e3 e5 f0 f2 ea f5 f0 e2 e4 f1 ff 05 0a 0a 05 fb f7 fc fd 04 0d f9 fd 0c 0d fb e4 e4 f8 12 16 11 0c fa f8 ef ea e7 04 0f 09 15 0e 14 19 1a fd fd fe 03 f3 00 03 01 f2 ec 02 1c 20 1b 13 17 07 07 04 fe 14 0b 0b 24 30 1a 1b 18 fd ef e9 f8 08 f6 ff 02 f6 e3 ee 04 0d 1a 1f 12 19 0d 18 18 09 17 2b 2b 1f 1c 11 15 f6 ed e6 04 1f f9 02 03 f6 eb ce dd ef eb f7 0c 00 08 07 09 12 0a 07 fe 14 14 01 f1 e8 eb da fc fe 00 06 06 fa 02 e1 c5 ca bf ca d4 e1 db cc dc d7 d8 d9 d1 e1 c8 d1 cd d5 f1 f3 f9 fc 06 08 06 fc f7 f8 ea dd cd c6 bc c3 c3 b8 aa 9f ac aa a2 ab b1 c4 d7 e3 f1 00 02 00 fa 07 fe 02 06 04 fd ec e6 ec e0 e1 ec ea e2 d4 e2 e2 dc e9 e3 f5 f7 ea 03 03 01 f9 ff
