1e e3 26 e8 29 1e 34 bf bb 16 31 15 e4 39 02 ce 2c af 19 c9 1f d8 df df db 25 c2 b8 d5 0c ee da
be ec bb d1 ef 20 da 02 cc 31 c6 1e 2c 13 31 40 c6 21 a9 e4 e2 ff b5 1f c0 ab 11 f2 d0 3a e4 38
15 0b c7 af 3c 22 0f dc f5 28 2e 1d 1a cc c4 81 3e 35 d6 af ee 21 57 2d f3 ed 0e f1 b5 d5 07 f6
1b 19 f5 ff 1f 34 b5 f6 2c cb fd c8 37 0d 26 ba 17 2c f4 fe f4 ec f2 db 00 f8 2c 03 1c e7 3a f5
de ef 09 dd b5 af 45 1a 4b fc 2f de ea c6 ee 0a 89 a2 b9 32 1d 1e 32 d2 d6 20 d1 25 13 cf e1 3f
3f f1 c1 18 fb 19 03 a1 3b ad 07 d1 b5 21 d2 4e 0d f6 0d fc f4 16 0d 14 1b fe e6 ed 42 08 1c 05
17 e4 1b 2e a3 c2 e3 c7 c9 b9 21 27 0e 17 c3 22 db a1 d5 ba e6 39 e9 f3 a2 19 16 37 d4 12 92 cb
aa 14 eb 9c 45 b5 f6 18 fb 35 c5 ed 1d c4 f6 c3 de 1c 25 21 f9 23 c5 bd 1a 3d e0 c7 13 23 35 00
d9 f1 cf 2b e6 ca 09 19 ff ea 20 1a 02 09 28 e6 2c bb 05 a8 f0 1f a1 26 35 c9 f5 eb 05 b5 d3 22
d7 e7 29 40 fd df ff 1e f0 34 fa da b8 f1 f2 2d fc ee f6 11 0a 03 3b da 32 19 e1 01 ea b3 21 f2
